<blk> 0
<sos/eos> 1
<unk> 2
螨 3
溜 4
谋 5
发 6
馔 7
sted 8
戎 9
雞 10
疃 11
凿 12
貫 13
表 14
晦 15
魄 16
漪 17
閘 18
繞 19
砌 20
帻 21
plic@@ 22
麗 23
even 24
靥 25
鴛 26
土 27
瘾 28
exp@@ 29
髅 30
砷 31
买 32
痢 33
冈 34
岔 35
龛 36
温 37
惬 38
飙 39
灯 40
迄 41
ics 42
归 43
赌 44
世 45
鑛 46
祉 47
缆 48
新 49
曲 50
养 51
勉 52
闵 53
通 54
孫 55
wee@@ 56
only 57
鳝 58
gl@@ 59
删 60
撃 61
积 62
佈 63
沖 64
菖 65
頭 66
汊 67
逻 68
change 69
锂 70
ly 71
ban@@ 72
play@@ 73
孙 74
诶 75
cho@@ 76
敕 77
ant@@ 78
衡 79
搨 80
腍 81
转 82
那 83
赢 84
訴 85
逃 86
只 87
衢 88
裨 89
繫 90
鞣 91
臃 92
倪 93
甭 94
妗 95
忆 96
恙 97
鄄 98
吒 99
har@@ 100
痺 101
纪 102
领 103
匡 104
塞 105
亘 106
il 107
ver 108
強 109
皆 110
兵 111
相 112
偈 113
coll@@ 114
嗫 115
剔 116
坷 117
璜 118
刚 119
塊 120
埋 121
煩 122
tions 123
降 124
綠 125
礦 126
较 127
曛 128
叉 129
妨 130
涉 131
煉 132
郢 133
醫 134
疴 135
tech@@ 136
俬 137
萨 138
煊 139
慕 140
褊 141
心 142
pp@@ 143
逆 144
聍 145
骰 146
瞎 147
届 148
蛟 149
啡 150
顧 151
柯 152
蟄 153
愈 154
帜 155
bel@@ 156
羯 157
尽 158
攀 159
贰 160
軟 161
竿 162
things 163
湆 164
尙 165
璠 166
賈 167
瑾 168
匯 169
ce 170
循 171
national 172
液 173
月 174
绅 175
療 176
哇 177
榨 178
讽 179
謀 180
储 181
吋 182
sk@@ 183
袄 184
叠 185
蓆 186
ever@@ 187
磐 188
拦 189
谴 190
會 191
芷 192
价 193
天 194
冯 195
萬 196
讓 197
鳴 198
嘅 199
兔 200
升 201
look 202
ined 203
穎 204
凼 205
舆 206
寰 207
籽 208
grou@@ 209
錮 210
冂 211
乖 212
患 213
锹 214
赫 215
禊 216
俏 217
鹭 218
熹 219
惦 220
沅 221
畔 222
卅 223
獗 224
their 225
photo@@ 226
幫 227
飲 228
影 229
驚 230
堤 231
three 232
幂 233
除 234
诊 235
铬 236
剁 237
據 238
赘 239
祸 240
給 241
ties 242
邳 243
簟 244
哥 245
鍊 246
or 247
飒 248
ei@@ 249
vo@@ 250
喷 251
員 252
read 253
密 254
熝 255
滅 256
諒 257
were 258
潛 259
更 260
ome 261
脑 262
垣 263
钜 264
裊 265
丞 266
俭 267
傜 268
佐 269
蜞 270
偎 271
坼 272
禍 273
燊 274
肝 275
战 276
sha@@ 277
剎 278
脖 279
谛 280
裳 281
樖 282
pen@@ 283
fo@@ 284
同 285
搶 286
賂 287
梗 288
紉 289
砝 290
突 291
藻 292
嚼 293
惨 294
麪 295
艏 296
戽 297
au@@ 298
瞭 299
鞥 300
搵 301
徊 302
史 303
讖 304
埔 305
如 306
鑿 307
綽 308
友 309
冠 310
跣 311
粒 312
伤 313
斎 314
兀 315
腓 316
息 317
宝 318
恕 319
紗 320
股 321
憔 322
岀 323
哮 324
誒 325
镍 326
浐 327
muc@@ 328
辔 329
pres@@ 330
姊 331
轆 332
樵 333
煺 334
擅 335
袋 336
凋 337
薈 338
毀 339
妊 340
图 341
贽 342
斋 343
遲 344
銘 345
修 346
勃 347
city 348
蹦 349
變 350
謠 351
悴 352
橋 353
thr@@ 354
洱 355
噏 356
榴 357
屬 358
腚 359
ish 360
球 361
暗 362
淙 363
淀 364
蒡 365
隰 366
陛 367
exc@@ 368
撅 369
许 370
谕 371
疿 372
蛇 373
樽 374
仑 375
苦 376
鼓 377
醅 378
綿 379
彆 380
藥 381
氛 382
诣 383
形 384
nor@@ 385
ul@@ 386
走 387
柘 388
攰 389
嘱 390
尊 391
彌 392
贓 393
鲜 394
摱 395
闙 396
損 397
难 398
ac@@ 399
挞 400
卟 401
涴 402
厂 403
ro@@ 404
揚 405
體 406
捐 407
苓 408
扉 409
讴 410
蛎 411
沈 412
浮 413
泣 414
拿 415
琊 416
臂 417
雉 418
析 419
蜕 420
ects 421
虯 422
露 423
饰 424
瑯 425
矚 426
ould 427
跌 428
翰 429
襖 430
整 431
憩 432
哎 433
your 434
三 435
來 436
keep 437
抨 438
肱 439
產 440
裆 441
逮 442
船 443
求 444
might 445
long 446
塑 447
have 448
魁 449
孱 450
地 451
吉 452
垮 453
肛 454
俜 455
旄 456
焚 457
la@@ 458
郦 459
訾 460
愿 461
浆 462
丛 463
厝 464
腭 465
at@@ 466
滁 467
ers 468
辗 469
ly@@ 470
櫈 471
钊 472
捩 473
亨 474
搓 475
珐 476
邡 477
换 478
悠 479
挹 480
dd@@ 481
稿 482
le@@ 483
蹟 484
獨 485
朋 486
麵 487
创 488
纍 489
就 490
栩 491
涿 492
瀑 493
啵 494
瘁 495
踹 496
ken 497
绍 498
蕲 499
勺 500
氮 501
荠 502
魇 503
畴 504
瞰 505
炕 506
钴 507
璃 508
窿 509
线 510
僕 511
靡 512
荐 513
辯 514
see 515
旦 516
钶 517
陕 518
愣 519
ger 520
比 521
if 522
鋼 523
宵 524
bl@@ 525
to 526
台 527
鱗 528
败 529
哲 530
镖 531
怨 532
gh@@ 533
湊 534
唾 535
胥 536
懺 537
犊 538
嶂 539
驾 540
骙 541
臆 542
谔 543
腿 544
車 545
垚 546
狠 547
淝 548
錦 549
为 550
歡 551
李 552
鲘 553
桉 554
沌 555
讳 556
qu@@ 557
win@@ 558
羈 559
妞 560
箕 561
挫 562
碜 563
哌 564
尼 565
吓 566
迈 567
碁 568
篙 569
暧 570
後 571
龚 572
瑞 573
郸 574
吞 575
婿 576
鹫 577
ound 578
鵲 579
宿 580
壟 581
餘 582
岖 583
暫 584
滸 585
顺 586
湓 587
that 588
le 589
羡 590
eng@@ 591
阡 592
鷹 593
馬 594
巿 595
冇 596
砀 597
厢 598
拫 599
圍 600
涸 601
楯 602
性 603
艱 604
哆 605
嵬 606
戾 607
鳞 608
纵 609
萊 610
颖 611
different 612
帼 613
準 614
驀 615
窝 616
鞅 617
师 618
殷 619
餋 620
篮 621
来 622
泳 623
麋 624
撳 625
羌 626
凡 627
筏 628
陞 629
胗 630
乳 631
謁 632
酣 633
ways 634
ba@@ 635
爍 636
mail 637
won@@ 638
uring 639
簾 640
fam@@ 641
垅 642
傷 643
谒 644
躬 645
昇 646
珂 647
案 648
ke@@ 649
桐 650
蠕 651
已 652
瘩 653
form 654
澜 655
哏 656
獲 657
對 658
边 659
晓 660
国 661
奕 662
please 663
翱 664
纤 665
馍 666
燈 667
細 668
渊 669
駁 670
榜 671
捆 672
侷 673
偷 674
鬼 675
肅 676
敗 677
窗 678
掯 679
誘 680
怆 681
拗 682
续 683
郓 684
魔 685
鐘 686
柺 687
栋 688
唳 689
並 690
質 691
闭 692
蝸 693
罅 694
哩 695
擤 696
昐 697
秋 698
淞 699
農 700
sed 701
蹒 702
踱 703
孔 704
俅 705
仰 706
隨 707
戒 708
陳 709
髮 710
矍 711
摁 712
诞 713
諷 714
滯 715
啯 716
蕈 717
珅 718
翮 719
掇 720
戚 721
清 722
終 723
肿 724
use 725
可 726
der@@ 727
ag@@ 728
涨 729
栀 730
拭 731
锚 732
鹤 733
攥 734
衣 735
痘 736
ence 737
恬 738
倏 739
沟 740
馩 741
檜 742
会 743
暂 744
绥 745
搡 746
擷 747
ak 748
ame 749
罡 750
鳔 751
士 752
攆 753
輛 754
箱 755
葉 756
醞 757
掏 758
沧 759
who 760
凸 761
又 762
纖 763
腱 764
瑄 765
捍 766
慧 767
忻 768
bi@@ 769
睑 770
鬱 771
毋 772
冰 773
磴 774
虾 775
擊 776
悗 777
vers@@ 778
劲 779
琍 780
鹽 781
昼 782
苗 783
擘 784
岭 785
澈 786
涵 787
蔸 788
檻 789
ber 790
赈 791
椽 792
俊 793
鸝 794
倨 795
龌 796
面 797
逢 798
蔻 799
楼 800
倀 801
祢 802
ams 803
desig@@ 804
榫 805
ho@@ 806
識 807
葭 808
委 809
浹 810
勐 811
攋 812
鹈 813
繚 814
冒 815
蠹 816
冀 817
压 818
凯 819
峦 820
湿 821
饲 822
鳊 823
激 824
贞 825
采 826
潰 827
嗯 828
钰 829
叔 830
豫 831
施 832
吗 833
巫 834
朕 835
篷 836
痫 837
安 838
鋤 839
紛 840
颊 841
螭 842
澎 843
局 844
腆 845
姘 846
拧 847
澱 848
麸 849
匮 850
滋 851
濠 852
's 853
煜 854
铃 855
砵 856
擻 857
蔫 858
卉 859
two 860
證 861
享 862
绾 863
葵 864
覺 865
匪 866
業 867
for@@ 868
江 869
伴 870
顰 871
泗 872
昅 873
飢 874
凛 875
婶 876
乘 877
浊 878
浓 879
浴 880
竣 881
芍 882
top 883
沼 884
蝌 885
唔 886
房 887
扇 888
wil@@ 889
枉 890
钝 891
仿 892
桩 893
勵 894
dec@@ 895
散 896
嗑 897
菁 898
电 899
铜 900
荔 901
洼 902
欄 903
tec@@ 904
port@@ 905
择 906
妩 907
類 908
隈 909
稅 910
ps 911
逝 912
遷 913
play 914
q 915
褻 916
毡 917
方 918
蹀 919
葬 920
提 921
贱 922
僑 923
溝 924
候 925
争 926
蹭 927
泱 928
尾 929
笪 930
呓 931
int@@ 932
郯 933
苜 934
乍 935
肇 936
艇 937
喥 938
佳 939
鄒 940
ture 941
拯 942
妲 943
秉 944
樑 945
惡 946
存 947
乱 948
梔 949
攤 950
輾 951
state 952
律 953
娅 954
栏 955
色 956
bar@@ 957
岸 958
鹮 959
癫 960
或 961
赂 962
助 963
蛀 964
滔 965
鉅 966
sol@@ 967
嚢 968
脲 969
染 970
偻 971
ves 972
绘 973
鬆 974
唪 975
既 976
肮 977
剩 978
瞩 979
wer 980
崔 981
碍 982
效 983
云 984
還 985
儈 986
釁 987
昆 988
惧 989
商 990
薄 991
噢 992
稀 993
a 994
粳 995
癒 996
son@@ 997
旻 998
邋 999
贸 1000
墻 1001
崽 1002
樸 1003
赣 1004
維 1005
晴 1006
陇 1007
嘥 1008
ool 1009
噄 1010
饺 1011
嚕 1012
趺 1013
折 1014
颓 1015
俞 1016
囑 1017
媺 1018
must 1019
償 1020
握 1021
纺 1022
唰 1023
喇 1024
威 1025
sit@@ 1026
倩 1027
咛 1028
瘫 1029
呼 1030
囧 1031
餒 1032
轍 1033
招 1034
擡 1035
緝 1036
熄 1037
屋 1038
栊 1039
do 1040
陂 1041
遮 1042
琼 1043
設 1044
焖 1045
誓 1046
屢 1047
倡 1048
蔼 1049
柏 1050
奇 1051
噌 1052
説 1053
筛 1054
x@@ 1055
ding 1056
粽 1057
撿 1058
准 1059
嗷 1060
呐 1061
鲂 1062
玦 1063
袤 1064
雜 1065
榈 1066
懾 1067
綦 1068
扤 1069
廝 1070
抑 1071
腋 1072
because 1073
灏 1074
奥 1075
tain 1076
页 1077
籌 1078
遺 1079
徉 1080
巳 1081
域 1082
斐 1083
趋 1084
楋 1085
殼 1086
閉 1087
飯 1088
邀 1089
斓 1090
氧 1091
麾 1092
蟑 1093
窠 1094
夾 1095
伺 1096
描 1097
庆 1098
曙 1099
荡 1100
葷 1101
陷 1102
form@@ 1103
槐 1104
嗅 1105
齐 1106
俩 1107
糍 1108
霭 1109
泖 1110
颔 1111
恼 1112
姑 1113
良 1114
ans 1115
礪 1116
绦 1117
诫 1118
vis@@ 1119
談 1120
鹕 1121
勇 1122
槓 1123
襟 1124
橡 1125
羸 1126
pr@@ 1127
畹 1128
甕 1129
结 1130
嚀 1131
妒 1132
各 1133
tim@@ 1134
結 1135
礁 1136
溪 1137
癞 1138
擋 1139
捎 1140
车 1141
贼 1142
澡 1143
tic@@ 1144
桂 1145
敏 1146
给 1147
堂 1148
弥 1149
崎 1150
条 1151
service 1152
呦 1153
槛 1154
单 1155
涷 1156
恭 1157
筱 1158
孰 1159
卖 1160
产 1161
么 1162
嗶 1163
醠 1164
窺 1165
爱 1166
遜 1167
塭 1168
厦 1169
澳 1170
孖 1171
憑 1172
轳 1173
湯 1174
绵 1175
拾 1176
久 1177
踉 1178
磚 1179
餃 1180
绝 1181
son 1182
blog@@ 1183
ll 1184
妇 1185
遏 1186
停 1187
從 1188
裙 1189
锣 1190
犟 1191
滿 1192
皓 1193
諮 1194
艦 1195
commun@@ 1196
鉤 1197
潔 1198
lic 1199
钯 1200
姻 1201
pho@@ 1202
狹 1203
框 1204
邰 1205
愫 1206
饋 1207
慘 1208
蓺 1209
風 1210
黜 1211
汞 1212
gs 1213
將 1214
cour@@ 1215
便 1216
贊 1217
缴 1218
歲 1219
隻 1220
輯 1221
cer@@ 1222
烷 1223
蜓 1224
out 1225
囗 1226
益 1227
鳕 1228
膊 1229
滬 1230
趯 1231
嚄 1232
绡 1233
學 1234
vir@@ 1235
型 1236
楞 1237
賊 1238
贲 1239
宰 1240
man@@ 1241
os 1242
叢 1243
sta@@ 1244
曹 1245
ali@@ 1246
亡 1247
鹏 1248
阖 1249
媽 1250
膦 1251
鸢 1252
怼 1253
獠 1254
ws 1255
饥 1256
拼 1257
砣 1258
go@@ 1259
蓓 1260
趿 1261
赛 1262
捞 1263
胰 1264
薩 1265
舛 1266
泽 1267
讶 1268
績 1269
隸 1270
侨 1271
缎 1272
话 1273
廑 1274
淵 1275
振 1276
葫 1277
烬 1278
歌 1279
晶 1280
由 1281
骓 1282
侗 1283
昧 1284
亢 1285
釀 1286
履 1287
割 1288
悫 1289
苡 1290
豂 1291
蠍 1292
彤 1293
膾 1294
雹 1295
碑 1296
群 1297
拃 1298
沫 1299
徠 1300
张 1301
槿 1302
爬 1303
仲 1304
讧 1305
謊 1306
缉 1307
彼 1308
呸 1309
摩 1310
悵 1311
豌 1312
琵 1313
藕 1314
皑 1315
潦 1316
褪 1317
個 1318
骊 1319
ies 1320
髪 1321
down@@ 1322
偌 1323
左 1324
庙 1325
熟 1326
輿 1327
訪 1328
the 1329
深 1330
ys@@ 1331
滨 1332
兌 1333
at's 1334
镚 1335
还 1336
撩 1337
卻 1338
烘 1339
into 1340
盧 1341
节 1342
逑 1343
妥 1344
芦 1345
揇 1346
燃 1347
蓿 1348
杖 1349
飓 1350
wal@@ 1351
佔 1352
祗 1353
暢 1354
吽 1355
锌 1356
tiv@@ 1357
儼 1358
騙 1359
媲 1360
漳 1361
叹 1362
祭 1363
time 1364
湮 1365
them 1366
夏 1367
狰 1368
诲 1369
燥 1370
舰 1371
頊 1372
僥 1373
讨 1374
陨 1375
捉 1376
斕 1377
had 1378
洽 1379
媒 1380
朴 1381
筌 1382
銹 1383
攒 1384
旣 1385
雯 1386
隼 1387
饑 1388
龢 1389
馁 1390
鑲 1391
袈 1392
蒌 1393
跗 1394
悼 1395
prob@@ 1396
渝 1397
猝 1398
褶 1399
喧 1400
services 1401
峤 1402
渍 1403
绛 1404
麓 1405
寂 1406
薜 1407
闾 1408
k 1409
稜 1410
亲 1411
揢 1412
would 1413
忧 1414
钦 1415
外 1416
藓 1417
廢 1418
播 1419
頑 1420
b 1421
will 1422
撐 1423
灾 1424
渦 1425
sts 1426
扈 1427
奉 1428
焰 1429
蚩 1430
怕 1431
en 1432
消 1433
徳 1434
圳 1435
濃 1436
础 1437
憨 1438
d@@ 1439
囱 1440
br@@ 1441
螈 1442
盆 1443
颦 1444
喲 1445
憶 1446
桧 1447
弯 1448
雌 1449
頃 1450
聒 1451
叒 1452
j@@ 1453
須 1454
斛 1455
原 1456
賜 1457
詢 1458
峪 1459
鹅 1460
ous 1461
we 1462
誤 1463
疱 1464
ep@@ 1465
嗮 1466
帏 1467
邹 1468
笆 1469
pic@@ 1470
o 1471
te 1472
蛻 1473
铀 1474
炙 1475
挚 1476
谮 1477
旖 1478
控 1479
assi@@ 1480
与 1481
啥 1482
捡 1483
篤 1484
願 1485
事 1486
瘪 1487
翔 1488
勋 1489
鹂 1490
飪 1491
睜 1492
瀝 1493
糙 1494
ins 1495
鶴 1496
蟲 1497
閱 1498
活 1499
款 1500
head 1501
琛 1502
絆 1503
沮 1504
裝 1505
咏 1506
鳃 1507
榆 1508
他 1509
踞 1510
籁 1511
侓 1512
茗 1513
蓊 1514
惗 1515
篋 1516
湖 1517
氪 1518
垫 1519
吠 1520
積 1521
副 1522
肥 1523
弄 1524
止 1525
gir@@ 1526
tion 1527
礼 1528
孟 1529
籴 1530
卫 1531
媳 1532
阚 1533
总 1534
雛 1535
蘚 1536
射 1537
勘 1538
越 1539
孝 1540
棄 1541
霓 1542
逍 1543
嚣 1544
壓 1545
谱 1546
咻 1547
噖 1548
異 1549
ca@@ 1550
靓 1551
蝨 1552
増 1553
罹 1554
犸 1555
彙 1556
掷 1557
te@@ 1558
罗 1559
cen@@ 1560
黝 1561
骂 1562
紧 1563
钩 1564
always 1565
web@@ 1566
under@@ 1567
new 1568
傭 1569
獎 1570
鵬 1571
熔 1572
囿 1573
懲 1574
鑼 1575
悉 1576
精 1577
猎 1578
恺 1579
陉 1580
縣 1581
泛 1582
誡 1583
乔 1584
透 1585
先 1586
幷 1587
逼 1588
盃 1589
跄 1590
馒 1591
枢 1592
病 1593
灑 1594
眶 1595
剿 1596
嗱 1597
混 1598
遗 1599
蠅 1600
枳 1601
悟 1602
模 1603
聯 1604
蒿 1605
崛 1606
革 1607
實 1608
髋 1609
颅 1610
逗 1611
叵 1612
医 1613
奀 1614
full 1615
遐 1616
ss 1617
械 1618
ged 1619
陋 1620
晖 1621
蹊 1622
聶 1623
墮 1624
銅 1625
儍 1626
牌 1627
臼 1628
足 1629
our@@ 1630
梵 1631
涠 1632
which 1633
膜 1634
嬉 1635
瓷 1636
擾 1637
噎 1638
碣 1639
健 1640
赶 1641
邕 1642
匀 1643
桓 1644
嗄 1645
芫 1646
仔 1647
堯 1648
遑 1649
擳 1650
撇 1651
for 1652
蘆 1653
箧 1654
噜 1655
奋 1656
綱 1657
旬 1658
莽 1659
爵 1660
廿 1661
孬 1662
不 1663
纬 1664
小 1665
壅 1666
掴 1667
ed 1668
劫 1669
仁 1670
抳 1671
wn@@ 1672
壬 1673
锔 1674
觸 1675
p 1676
醺 1677
cess 1678
葩 1679
寅 1680
噠 1681
澹 1682
钱 1683
研 1684
坯 1685
紅 1686
棱 1687
語 1688
挨 1689
漯 1690
逖 1691
零 1692
瀚 1693
庶 1694
碱 1695
uc@@ 1696
宴 1697
wn 1698
责 1699
捂 1700
鲠 1701
tly 1702
春 1703
book 1704
筆 1705
亞 1706
它 1707
端 1708
遂 1709
彿 1710
靴 1711
症 1712
垃 1713
骠 1714
習 1715
闲 1716
擬 1717
製 1718
舷 1719
哽 1720
猖 1721
贯 1722
娃 1723
去 1724
癍 1725
芙 1726
皿 1727
her 1728
舟 1729
缪 1730
ness 1731
孿 1732
邑 1733
碗 1734
凇 1735
簋 1736
趔 1737
踵 1738
劈 1739
般 1740
專 1741
伟 1742
叙 1743
撒 1744
界 1745
朧 1746
嵋 1747
睡 1748
痛 1749
講 1750
ity 1751
嵩 1752
级 1753
載 1754
峯 1755
咩 1756
開 1757
戈 1758
功 1759
合 1760
鞠 1761
ft 1762
萤 1763
ens 1764
闽 1765
腳 1766
轰 1767
詫 1768
软 1769
舂 1770
没 1771
亩 1772
鸟 1773
bus@@ 1774
缛 1775
焕 1776
橹 1777
糅 1778
燻 1779
淥 1780
韋 1781
胚 1782
other 1783
祺 1784
澗 1785
攬 1786
倘 1787
氫 1788
邊 1789
谓 1790
瘧 1791
郊 1792
疆 1793
tra@@ 1794
成 1795
痂 1796
挣 1797
扲 1798
啷 1799
庞 1800
譯 1801
规 1802
雙 1803
奔 1804
楔 1805
鲢 1806
裡 1807
悽 1808
char@@ 1809
缚 1810
郜 1811
稞 1812
饶 1813
eff@@ 1814
sub@@ 1815
扼 1816
琨 1817
箩 1818
曜 1819
莖 1820
伊 1821
磊 1822
怎 1823
餐 1824
腸 1825
汤 1826
av@@ 1827
計 1828
剷 1829
颁 1830
唐 1831
触 1832
计 1833
奣 1834
枥 1835
懑 1836
菇 1837
催 1838
鮑 1839
猬 1840
蔃 1841
億 1842
腴 1843
裁 1844
櫓 1845
綫 1846
邱 1847
紐 1848
漾 1849
嘹 1850
运 1851
镐 1852
覽 1853
抻 1854
氨 1855
瓊 1856
star@@ 1857
王 1858
樟 1859
邨 1860
set 1861
賦 1862
甥 1863
ear@@ 1864
齒 1865
毛 1866
鬢 1867
坡 1868
倣 1869
give 1870
傍 1871
杓 1872
菣 1873
manag@@ 1874
戕 1875
pla@@ 1876
粱 1877
tle 1878
賠 1879
蹬 1880
祁 1881
侣 1882
恁 1883
搁 1884
倖 1885
扻 1886
炒 1887
鼆 1888
lin@@ 1889
信 1890
裟 1891
你 1892
验 1893
杀 1894
叭 1895
鹉 1896
揉 1897
僅 1898
滂 1899
business 1900
ors 1901
览 1902
尤 1903
岁 1904
则 1905
衆 1906
筋 1907
矶 1908
叨 1909
邦 1910
酲 1911
穴 1912
沤 1913
house 1914
濟 1915
胆 1916
骸 1917
less 1918
w 1919
蓢 1920
玖 1921
虏 1922
卑 1923
穫 1924
峡 1925
氣 1926
鱲 1927
蝈 1928
傾 1929
嫔 1930
娼 1931
大 1932
缥 1933
她 1934
睞 1935
缺 1936
肩 1937
卿 1938
騖 1939
旅 1940
唆 1941
嗒 1942
邪 1943
肯 1944
孪 1945
啾 1946
醇 1947
吼 1948
ick 1949
命 1950
笼 1951
壹 1952
驰 1953
丰 1954
芮 1955
麥 1956
磷 1957
淺 1958
蹉 1959
鬃 1960
炭 1961
荇 1962
繆 1963
' 1964
resp@@ 1965
啼 1966
鄙 1967
慰 1968
迦 1969
颶 1970
笥 1971
浸 1972
end 1973
淸 1974
揈 1975
棠 1976
牛 1977
盱 1978
珺 1979
虢 1980
四 1981
儆 1982
常 1983
缈 1984
趷 1985
魘 1986
high 1987
記 1988
債 1989
汾 1990
绀 1991
劏 1992
仆 1993
味 1994
垄 1995
谤 1996
缘 1997
豈 1998
筑 1999
衔 2000
牯 2001
恶 2002
灞 2003
sin@@ 2004
妆 2005
偏 2006
off@@ 2007
without 2008
悯 2009
lo@@ 2010
绊 2011
趣 2012
淨 2013
墊 2014
訥 2015
劉 2016
鑄 2017
翕 2018
寇 2019
鲳 2020
畊 2021
裇 2022
惋 2023
贬 2024
咱 2025
弗 2026
绒 2027
疝 2028
珑 2029
哪 2030
肖 2031
渤 2032
處 2033
锺 2034
楊 2035
帕 2036
豚 2037
搖 2038
丕 2039
妾 2040
萍 2041
质 2042
被 2043
龊 2044
咴 2045
饕 2046
貂 2047
資 2048
侦 2049
假 2050
毙 2051
rent 2052
政 2053
绷 2054
汕 2055
牲 2056
缮 2057
联 2058
丫 2059
译 2060
囉 2061
焯 2062
梏 2063
聴 2064
爲 2065
堇 2066
颈 2067
绣 2068
佑 2069
敲 2070
na@@ 2071
撓 2072
蔓 2073
非 2074
晌 2075
咋 2076
蔣 2077
肢 2078
钵 2079
椰 2080
溧 2081
微 2082
跆 2083
言 2084
凜 2085
锈 2086
掭 2087
net 2088
吭 2089
僵 2090
lat@@ 2091
韌 2092
纾 2093
瑗 2094
际 2095
軒 2096
答 2097
掩 2098
杂 2099
郴 2100
强 2101
兖 2102
檔 2103
蜘 2104
干 2105
稣 2106
牕 2107
全 2108
嘖 2109
苻 2110
tor 2111
蝦 2112
魯 2113
鐮 2114
樁 2115
跻 2116
gr@@ 2117
荷 2118
畝 2119
喼 2120
蒙 2121
頻 2122
ation 2123
棂 2124
海 2125
晁 2126
畈 2127
随 2128
斃 2129
代 2130
看 2131
柞 2132
躅 2133
窑 2134
雠 2135
钒 2136
蟻 2137
ber@@ 2138
鐡 2139
碴 2140
兆 2141
羹 2142
碇 2143
蝕 2144
硃 2145
墾 2146
瘠 2147
浃 2148
醒 2149
咿 2150
intere@@ 2151
確 2152
竽 2153
裔 2154
諼 2155
侯 2156
剥 2157
弒 2158
弧 2159
坟 2160
speci@@ 2161
滚 2162
邵 2163
隕 2164
care 2165
煨 2166
頁 2167
巨 2168
疍 2169
饒 2170
绶 2171
瘟 2172
芪 2173
术 2174
坑 2175
tion@@ 2176
ven 2177
稔 2178
具 2179
頗 2180
租 2181
暨 2182
获 2183
笙 2184
sto@@ 2185
鸳 2186
供 2187
售 2188
浛 2189
括 2190
烹 2191
奧 2192
值 2193
植 2194
回 2195
嚷 2196
堵 2197
贪 2198
pri@@ 2199
钟 2200
i 2201
赁 2202
惇 2203
幸 2204
抆 2205
響 2206
咯 2207
寓 2208
踐 2209
覓 2210
惰 2211
咸 2212
趵 2213
荒 2214
漢 2215
粥 2216
冚 2217
钣 2218
赵 2219
苹 2220
撈 2221
剪 2222
串 2223
籟 2224
虞 2225
牘 2226
嗰 2227
樓 2228
尕 2229
册 2230
移 2231
馕 2232
線 2233
皴 2234
姩 2235
蟠 2236
藩 2237
鏗 2238
圩 2239
滥 2240
哞 2241
主 2242
半 2243
頹 2244
峙 2245
縵 2246
囔 2247
划 2248
pur@@ 2249
蹴 2250
賭 2251
ish@@ 2252
笋 2253
嘴 2254
泄 2255
咫 2256
雎 2257
葆 2258
噉 2259
甴 2260
杯 2261
远 2262
ess 2263
锃 2264
雩 2265
伩 2266
發 2267
户 2268
an@@ 2269
螺 2270
机 2271
all 2272
擺 2273
盘 2274
河 2275
寵 2276
怵 2277
狞 2278
筝 2279
堰 2280
嘌 2281
髏 2282
托 2283
褓 2284
嘀 2285
繽 2286
胀 2287
菱 2288
童 2289
馮 2290
瓮 2291
茆 2292
伥 2293
徽 2294
充 2295
resul@@ 2296
件 2297
燶 2298
櫃 2299
嬋 2300
于 2301
劬 2302
鴟 2303
ters 2304
跚 2305
蓑 2306
柑 2307
莪 2308
喋 2309
铩 2310
姪 2311
源 2312
貧 2313
亚 2314
q@@ 2315
吧 2316
釣 2317
众 2318
壳 2319
倜 2320
慵 2321
啧 2322
陲 2323
频 2324
fil@@ 2325
嘿 2326
甦 2327
娲 2328
as 2329
渐 2330
恹 2331
瘓 2332
厕 2333
黻 2334
籺 2335
渲 2336
骡 2337
while 2338
宠 2339
烚 2340
床 2341
猥 2342
諄 2343
失 2344
re@@ 2345
词 2346
鲫 2347
飼 2348
毂 2349
粤 2350
钞 2351
矫 2352
锥 2353
ated 2354
申 2355
焗 2356
喬 2357
鲱 2358
乞 2359
瑛 2360
瞇 2361
縫 2362
硬 2363
咄 2364
然 2365
儡 2366
占 2367
罔 2368
埃 2369
嶙 2370
麼 2371
恨 2372
盤 2373
撻 2374
过 2375
阔 2376
爺 2377
齋 2378
ten@@ 2379
宜 2380
nec@@ 2381
反 2382
羲 2383
励 2384
島 2385
穌 2386
乏 2387
婧 2388
枫 2389
征 2390
繃 2391
派 2392
peop@@ 2393
晨 2394
链 2395
辱 2396
襪 2397
颢 2398
凄 2399
点 2400
昃 2401
傑 2402
愤 2403
攣 2404
拋 2405
桠 2406
途 2407
钨 2408
蠻 2409
诈 2410
侮 2411
篑 2412
膘 2413
戰 2414
陪 2415
違 2416
應 2417
慷 2418
閂 2419
邏 2420
栗 2421
艿 2422
铛 2423
第 2424
曩 2425
tional 2426
鞋 2427
咦 2428
逾 2429
起 2430
谩 2431
袍 2432
stan@@ 2433
缢 2434
inte@@ 2435
h 2436
见 2437
彝 2438
在 2439
螳 2440
祚 2441
順 2442
闡 2443
el@@ 2444
砚 2445
素 2446
疸 2447
荊 2448
婑 2449
冕 2450
龜 2451
嚮 2452
阵 2453
辇 2454
居 2455
蜂 2456
觜 2457
摟 2458
家 2459
晰 2460
哢 2461
line 2462
阶 2463
詣 2464
網 2465
禮 2466
诧 2467
頒 2468
苒 2469
帛 2470
民 2471
脊 2472
see@@ 2473
箏 2474
噔 2475
b@@ 2476
纂 2477
磡 2478
班 2479
紮 2480
杳 2481
躏 2482
甘 2483
猴 2484
沄 2485
cam@@ 2486
咐 2487
饪 2488
忍 2489
耍 2490
鲛 2491
踽 2492
泔 2493
嘟 2494
beau@@ 2495
窘 2496
萝 2497
债 2498
保 2499
桨 2500
荣 2501
取 2502
great 2503
狱 2504
诅 2505
粵 2506
丈 2507
醉 2508
淪 2509
ready 2510
fa@@ 2511
辉 2512
操 2513
梨 2514
排 2515
诀 2516
棍 2517
屈 2518
镀 2519
jo@@ 2520
cri@@ 2521
蚬 2522
蚓 2523
骇 2524
壕 2525
俪 2526
慈 2527
標 2528
辕 2529
伢 2530
锰 2531
队 2532
道 2533
it@@ 2534
両 2535
漂 2536
焱 2537
雅 2538
屠 2539
詬 2540
打 2541
唥 2542
衙 2543
剂 2544
枱 2545
氓 2546
嬴 2547
衰 2548
县 2549
秸 2550
暌 2551
摹 2552
勁 2553
讯 2554
柳 2555
论 2556
蘼 2557
挠 2558
fro@@ 2559
ory 2560
撘 2561
鶯 2562
卒 2563
鸾 2564
番 2565
柩 2566
焦 2567
盔 2568
蜴 2569
儒 2570
悅 2571
营 2572
罢 2573
莘 2574
趙 2575
跋 2576
clo@@ 2577
鸵 2578
於 2579
溅 2580
褚 2581
粗 2582
钗 2583
阉 2584
sho@@ 2585
坞 2586
邝 2587
剐 2588
this 2589
砾 2590
浣 2591
谊 2592
耄 2593
吻 2594
鈺 2595
櫥 2596
顓 2597
壇 2598
颌 2599
茅 2600
门 2601
忿 2602
有 2603
鸿 2604
another 2605
初 2606
蝾 2607
咖 2608
标 2609
拜 2610
dent 2611
ion 2612
漫 2613
鎖 2614
阅 2615
弍 2616
扛 2617
ate 2618
post 2619
kin@@ 2620
扐 2621
圄 2622
牵 2623
趌 2624
next 2625
are 2626
秆 2627
多 2628
匝 2629
嶄 2630
渾 2631
帐 2632
拮 2633
敌 2634
avail@@ 2635
网 2636
experi@@ 2637
树 2638
号 2639
肌 2640
et@@ 2641
gen@@ 2642
役 2643
默 2644
隍 2645
淡 2646
鳥 2647
桶 2648
栈 2649
蚺 2650
訛 2651
氽 2652
竟 2653
踌 2654
锋 2655
殿 2656
疤 2657
ail@@ 2658
袱 2659
噪 2660
厨 2661
躍 2662
cra@@ 2663
愔 2664
se@@ 2665
悔 2666
gra@@ 2667
桥 2668
培 2669
窖 2670
黍 2671
謹 2672
mation 2673
廖 2674
鬚 2675
悱 2676
找 2677
饱 2678
冶 2679
俱 2680
de 2681
让 2682
喐 2683
绮 2684
萦 2685
拨 2686
铨 2687
枨 2688
渑 2689
酱 2690
酯 2691
茄 2692
che@@ 2693
甄 2694
both 2695
职 2696
盛 2697
tr@@ 2698
遞 2699
沱 2700
側 2701
院 2702
惙 2703
卜 2704
妮 2705
扒 2706
墓 2707
儋 2708
soci@@ 2709
分 2710
廊 2711
维 2712
懟 2713
输 2714
团 2715
剋 2716
駛 2717
虓 2718
帧 2719
猛 2720
ir 2721
uni@@ 2722
糧 2723
睾 2724
擒 2725
忒 2726
暉 2727
岬 2728
戳 2729
苔 2730
缰 2731
拍 2732
ned 2733
鲅 2734
別 2735
轨 2736
予 2737
沾 2738
struc@@ 2739
考 2740
吶 2741
匹 2742
湛 2743
縛 2744
中 2745
find 2746
欣 2747
粼 2748
娶 2749
嘤 2750
炼 2751
掀 2752
茹 2753
捏 2754
come 2755
桁 2756
礐 2757
罷 2758
备 2759
跬 2760
瘍 2761
v 2762
介 2763
使 2764
廬 2765
忠 2766
娜 2767
愷 2768
呱 2769
鋪 2770
遊 2771
廁 2772
肉 2773
夠 2774
捣 2775
怡 2776
嵇 2777
癣 2778
涡 2779
阂 2780
know 2781
憲 2782
聿 2783
增 2784
顽 2785
柚 2786
男 2787
鎂 2788
脅 2789
ed@@ 2790
凈 2791
穢 2792
瑪 2793
羧 2794
嗎 2795
柁 2796
牆 2797
继 2798
适 2799
ons 2800
唯 2801
喫 2802
蕩 2803
瞳 2804
癱 2805
瀕 2806
钾 2807
动 2808
燉 2809
急 2810
竇 2811
光 2812
譜 2813
ste@@ 2814
襲 2815
懊 2816
馏 2817
論 2818
瓏 2819
彪 2820
棟 2821
枰 2822
且 2823
飽 2824
窕 2825
鸸 2826
焘 2827
鞍 2828
鹘 2829
鴆 2830
芋 2831
扩 2832
耷 2833
痕 2834
冷 2835
槃 2836
渥 2837
念 2838
咤 2839
螞 2840
实 2841
拲 2842
was 2843
赊 2844
宋 2845
俚 2846
潜 2847
ad@@ 2848
盪 2849
豢 2850
需 2851
象 2852
疫 2853
弼 2854
讪 2855
谣 2856
嫲 2857
條 2858
煽 2859
縴 2860
頷 2861
滙 2862
茱 2863
峭 2864
闱 2865
ough 2866
ad 2867
鞨 2868
脂 2869
ff 2870
估 2871
构 2872
孜 2873
red 2874
朦 2875
莉 2876
白 2877
此 2878
圾 2879
盹 2880
解 2881
慳 2882
奪 2883
捕 2884
伍 2885
拱 2886
笔 2887
卞 2888
嗆 2889
决 2890
怪 2891
夯 2892
口 2893
備 2894
遢 2895
nat@@ 2896
蠡 2897
梁 2898
盅 2899
锻 2900
緣 2901
铎 2902
典 2903
貌 2904
辍 2905
咀 2906
稷 2907
劝 2908
弁 2909
污 2910
埲 2911
晕 2912
愾 2913
帑 2914
屿 2915
舵 2916
迴 2917
孤 2918
掦 2919
仇 2920
婁 2921
盗 2922
凑 2923
秫 2924
tre@@ 2925
淇 2926
洸 2927
ems 2928
旱 2929
茲 2930
噶 2931
few 2932
範 2933
辛 2934
co@@ 2935
屙 2936
喙 2937
浜 2938
啜 2939
菠 2940
陆 2941
il@@ 2942
嬌 2943
瓣 2944
甪 2945
稻 2946
gar@@ 2947
窰 2948
瓢 2949
婴 2950
擠 2951
魏 2952
周 2953
熊 2954
穂 2955
蓝 2956
鄭 2957
项 2958
辐 2959
啖 2960
詩 2961
蹶 2962
階 2963
豉 2964
竅 2965
煎 2966
袜 2967
瞠 2968
泌 2969
明 2970
哼 2971
勤 2972
譬 2973
財 2974
炫 2975
虫 2976
ject 2977
ved 2978
铉 2979
骑 2980
旧 2981
桄 2982
酋 2983
恒 2984
码 2985
勣 2986
莴 2987
蒋 2988
羊 2989
娩 2990
措 2991
ga@@ 2992
薏 2993
儲 2994
抿 2995
褦 2996
祜 2997
clu@@ 2998
屆 2999
卯 3000
it 3001
嗟 3002
漖 3003
ous@@ 3004
竺 3005
唵 3006
圓 3007
涛 3008
岂 3009
浏 3010
舔 3011
碳 3012
邈 3013
惩 3014
辫 3015
早 3016
经 3017
戬 3018
怅 3019
peri@@ 3020
did 3021
rec@@ 3022
呂 3023
浅 3024
咣 3025
唁 3026
泪 3027
ren@@ 3028
靄 3029
疮 3030
畀 3031
凱 3032
嗡 3033
鋸 3034
軌 3035
犍 3036
啕 3037
its 3038
fun@@ 3039
倉 3040
踡 3041
书 3042
堅 3043
蛭 3044
屎 3045
ma@@ 3046
豺 3047
in 3048
彷 3049
烈 3050
载 3051
猾 3052
賬 3053
拒 3054
砧 3055
ood 3056
爆 3057
谨 3058
獵 3059
ich 3060
亵 3061
彥 3062
苋 3063
荞 3064
兮 3065
per@@ 3066
灶 3067
遍 3068
藏 3069
囃 3070
諗 3071
ats 3072
癜 3073
鋁 3074
敖 3075
瓒 3076
預 3077
棋 3078
迷 3079
噫 3080
觞 3081
ack 3082
枣 3083
簍 3084
滑 3085
坣 3086
衞 3087
before 3088
護 3089
誼 3090
bo@@ 3091
谢 3092
迥 3093
佼 3094
才 3095
閡 3096
態 3097
席 3098
si@@ 3099
猩 3100
阙 3101
ab@@ 3102
筍 3103
ff@@ 3104
骥 3105
瘀 3106
摔 3107
燙 3108
頓 3109
締 3110
殡 3111
梢 3112
adi@@ 3113
栅 3114
咵 3115
扃 3116
ing@@ 3117
宸 3118
dri@@ 3119
與 3120
bs 3121
艺 3122
殒 3123
叫 3124
汽 3125
縮 3126
緬 3127
倔 3128
菰 3129
巾 3130
俑 3131
direc@@ 3132
帮 3133
崗 3134
園 3135
掠 3136
秦 3137
骢 3138
ster@@ 3139
厣 3140
邻 3141
并 3142
灣 3143
毁 3144
揸 3145
豕 3146
内 3147
钙 3148
漏 3149
ph@@ 3150
over 3151
呛 3152
聲 3153
善 3154
譎 3155
揍 3156
滩 3157
莊 3158
紙 3159
絕 3160
退 3161
块 3162
淚 3163
蕭 3164
system 3165
鏡 3166
刎 3167
儷 3168
湄 3169
銀 3170
who@@ 3171
mil@@ 3172
盖 3173
歸 3174
煥 3175
奠 3176
壯 3177
殯 3178
喆 3179
塘 3180
涝 3181
鄞 3182
憬 3183
轄 3184
膀 3185
迹 3186
一 3187
輻 3188
fl@@ 3189
宗 3190
义 3191
欞 3192
血 3193
經 3194
晟 3195
砒 3196
亿 3197
选 3198
嗳 3199
鸠 3200
蠶 3201
颼 3202
噅 3203
浚 3204
骋 3205
董 3206
鲍 3207
芈 3208
当 3209
愕 3210
诰 3211
沽 3212
设 3213
化 3214
閪 3215
纫 3216
锒 3217
教 3218
摷 3219
觅 3220
摊 3221
痳 3222
诉 3223
斌 3224
富 3225
關 3226
喂 3227
陶 3228
簿 3229
语 3230
麝 3231
慟 3232
墀 3233
钖 3234
琰 3235
漉 3236
骆 3237
诬 3238
镰 3239
貴 3240
黉 3241
嘠 3242
叁 3243
惶 3244
tting 3245
繪 3246
缔 3247
刨 3248
戆 3249
逊 3250
泞 3251
茼 3252
障 3253
东 3254
鈍 3255
谟 3256
膶 3257
胖 3258
咘 3259
掰 3260
芾 3261
未 3262
啬 3263
堆 3264
瞓 3265
佗 3266
殖 3267
contro@@ 3268
煤 3269
向 3270
軸 3271
啸 3272
緞 3273
婚 3274
摞 3275
宇 3276
弃 3277
裹 3278
曼 3279
卧 3280
现 3281
school 3282
酢 3283
豎 3284
譏 3285
郧 3286
um@@ 3287
琤 3288
怏 3289
戛 3290
孀 3291
溢 3292
诩 3293
蝎 3294
曠 3295
阴 3296
负 3297
伪 3298
懒 3299
噘 3300
玛 3301
濤 3302
賀 3303
量 3304
窦 3305
妍 3306
秧 3307
籐 3308
ght 3309
调 3310
吊 3311
砲 3312
襄 3313
屑 3314
醪 3315
薑 3316
拚 3317
蠱 3318
war@@ 3319
真 3320
show 3321
眯 3322
汇 3323
韫 3324
诵 3325
嬰 3326
度 3327
凳 3328
養 3329
轩 3330
雪 3331
卵 3332
抱 3333
掌 3334
擙 3335
謂 3336
黨 3337
沭 3338
刮 3339
稹 3340
man 3341
感 3342
bec@@ 3343
囚 3344
戴 3345
枧 3346
镬 3347
錢 3348
戊 3349
哄 3350
谯 3351
廯 3352
募 3353
潴 3354
霾 3355
挜 3356
测 3357
prof@@ 3358
buil@@ 3359
場 3360
賺 3361
哒 3362
挑 3363
涞 3364
伙 3365
腰 3366
省 3367
雏 3368
桅 3369
琶 3370
腊 3371
荼 3372
殇 3373
蕉 3374
档 3375
蒼 3376
looking 3377
al 3378
緒 3379
觊 3380
ire 3381
舖 3382
崭 3383
韵 3384
dis@@ 3385
琚 3386
杵 3387
拖 3388
鄰 3389
例 3390
煮 3391
凌 3392
訂 3393
廚 3394
裴 3395
very 3396
湟 3397
垦 3398
棕 3399
掹 3400
望 3401
荫 3402
妖 3403
汨 3404
蔴 3405
厥 3406
专 3407
况 3408
似 3409
ter 3410
杠 3411
昏 3412
g@@ 3413
拌 3414
抡 3415
扦 3416
到 3417
撚 3418
骗 3419
韧 3420
讲 3421
恰 3422
't 3423
询 3424
牀 3425
抦 3426
磺 3427
鬍 3428
oo@@ 3429
锢 3430
携 3431
絢 3432
怂 3433
冥 3434
细 3435
勸 3436
ten 3437
靜 3438
痨 3439
囤 3440
临 3441
紀 3442
孩 3443
ile 3444
咔 3445
希 3446
紡 3447
基 3448
伉 3449
淮 3450
肶 3451
脍 3452
谘 3453
搐 3454
琪 3455
錯 3456
谜 3457
sc@@ 3458
奸 3459
f 3460
肭 3461
嚓 3462
倾 3463
嘛 3464
辆 3465
課 3466
胫 3467
衛 3468
訇 3469
嶇 3470
屏 3471
踊 3472
钏 3473
視 3474
优 3475
read@@ 3476
滓 3477
der 3478
芡 3479
龟 3480
珞 3481
璣 3482
still 3483
賄 3484
贡 3485
自 3486
歼 3487
肤 3488
試 3489
瑙 3490
戟 3491
柒 3492
簕 3493
司 3494
壺 3495
垆 3496
讼 3497
乃 3498
呲 3499
櫛 3500
限 3501
we@@ 3502
狒 3503
ge 3504
交 3505
鄉 3506
延 3507
厾 3508
嗻 3509
ack@@ 3510
刽 3511
黃 3512
搉 3513
荪 3514
疯 3515
侬 3516
瑀 3517
濫 3518
墜 3519
ry 3520
s 3521
搏 3522
汛 3523
擞 3524
閣 3525
玑 3526
硼 3527
数 3528
讚 3529
锯 3530
趴 3531
mis@@ 3532
殃 3533
pol@@ 3534
ong 3535
察 3536
呀 3537
進 3538
烨 3539
蚣 3540
偶 3541
r@@ 3542
蟒 3543
都 3544
啪 3545
槺 3546
祖 3547
me@@ 3548
up 3549
want 3550
怩 3551
call@@ 3552
繡 3553
萄 3554
苷 3555
葛 3556
菊 3557
擲 3558
镌 3559
誅 3560
為 3561
韬 3562
篆 3563
旯 3564
馊 3565
罄 3566
旗 3567
佣 3568
亂 3569
挖 3570
驯 3571
額 3572
輘 3573
税 3574
秀 3575
妄 3576
鵑 3577
榮 3578
崧 3579
跑 3580
匈 3581
髓 3582
纓 3583
por@@ 3584
act 3585
鯨 3586
庖 3587
a@@ 3588
衝 3589
馈 3590
拄 3591
显 3592
晏 3593
狸 3594
暱 3595
笛 3596
隽 3597
mo@@ 3598
誣 3599
鹌 3600
駐 3601
帥 3602
匙 3603
谚 3604
辩 3605
謗 3606
红 3607
elec@@ 3608
妳 3609
嶺 3610
機 3611
鄯 3612
夭 3613
澔 3614
噓 3615
ants 3616
隱 3617
龍 3618
睦 3619
荤 3620
姜 3621
鍵 3622
鸣 3623
鄂 3624
浙 3625
躡 3626
ep 3627
朝 3628
迂 3629
简 3630
v@@ 3631
統 3632
烤 3633
薇 3634
醜 3635
蚁 3636
紫 3637
鲩 3638
撵 3639
隐 3640
痊 3641
熳 3642
柊 3643
水 3644
墙 3645
ben@@ 3646
廉 3647
蚊 3648
鲑 3649
扭 3650
萼 3651
摸 3652
举 3653
藝 3654
comm@@ 3655
喻 3656
诚 3657
don@@ 3658
平 3659
靳 3660
吝 3661
掕 3662
瑧 3663
us@@ 3664
晞 3665
銷 3666
矿 3667
虚 3668
痔 3669
唸 3670
财 3671
流 3672
ll@@ 3673
car@@ 3674
签 3675
列 3676
little 3677
鲺 3678
may 3679
侩 3680
糟 3681
鎊 3682
汉 3683
忽 3684
儿 3685
吔 3686
目 3687
算 3688
欹 3689
扽 3690
变 3691
ort 3692
玫 3693
耽 3694
铭 3695
廟 3696
珠 3697
瓦 3698
墳 3699
嘁 3700
晋 3701
星 3702
z@@ 3703
諸 3704
曉 3705
驻 3706
wi@@ 3707
stu@@ 3708
room 3709
亳 3710
爷 3711
瞑 3712
脈 3713
令 3714
再 3715
昺 3716
ant 3717
嚏 3718
猢 3719
趸 3720
办 3721
宥 3722
身 3723
辮 3724
荧 3725
his 3726
澀 3727
痧 3728
杮 3729
鋌 3730
慶 3731
暝 3732
驱 3733
钳 3734
in@@ 3735
驭 3736
犧 3737
查 3738
辨 3739
芬 3740
ty@@ 3741
笞 3742
d 3743
pu@@ 3744
轅 3745
畅 3746
vide@@ 3747
徙 3748
擢 3749
沂 3750
偿 3751
凫 3752
瀛 3753
site 3754
爐 3755
res 3756
府 3757
霆 3758
嗨 3759
災 3760
wh@@ 3761
其 3762
韩 3763
轟 3764
su@@ 3765
衅 3766
俎 3767
送 3768
嗇 3769
際 3770
ying 3771
啍 3772
wr@@ 3773
鸦 3774
蠄 3775
郑 3776
嬗 3777
尬 3778
崖 3779
扯 3780
畏 3781
彘 3782
铠 3783
刑 3784
姬 3785
揽 3786
统 3787
缄 3788
啃 3789
濕 3790
瓯 3791
账 3792
榕 3793
gu@@ 3794
秒 3795
峨 3796
呒 3797
钽 3798
鱷 3799
郭 3800
赐 3801
舊 3802
投 3803
ef@@ 3804
筇 3805
钼 3806
们 3807
池 3808
锜 3809
ques@@ 3810
齊 3811
ur@@ 3812
騾 3813
fri@@ 3814
擸 3815
餓 3816
溋 3817
两 3818
狼 3819
鹞 3820
弩 3821
带 3822
嫡 3823
誰 3824
揾 3825
悦 3826
驛 3827
赔 3828
眾 3829
终 3830
闯 3831
鐲 3832
龄 3833
妓 3834
往 3835
泓 3836
奶 3837
ach 3838
飛 3839
净 3840
觑 3841
吱 3842
創 3843
熱 3844
菏 3845
狐 3846
尚 3847
醃 3848
賞 3849
百 3850
彰 3851
几 3852
ase 3853
曰 3854
冗 3855
寬 3856
ns 3857
every@@ 3858
珲 3859
畬 3860
漆 3861
龔 3862
稠 3863
暴 3864
潸 3865
别 3866
燧 3867
弈 3868
睄 3869
屁 3870
姍 3871
菩 3872
踴 3873
qui@@ 3874
椭 3875
坪 3876
韆 3877
勳 3878
迍 3879
嗬 3880
抉 3881
淄 3882
貢 3883
铺 3884
诃 3885
out@@ 3886
诡 3887
糕 3888
輟 3889
楠 3890
赝 3891
儉 3892
皺 3893
境 3894
殄 3895
help 3896
at 3897
est 3898
昂 3899
間 3900
揪 3901
冽 3902
泾 3903
叶 3904
荀 3905
悒 3906
脉 3907
桀 3908
腐 3909
烽 3910
嘣 3911
饵 3912
广 3913
箇 3914
疊 3915
魃 3916
确 3917
惻 3918
ple@@ 3919
跺 3920
秤 3921
琉 3922
休 3923
农 3924
熙 3925
妪 3926
啩 3927
揺 3928
people 3929
輒 3930
炊 3931
黛 3932
轱 3933
茉 3934
勿 3935
社 3936
容 3937
漱 3938
獅 3939
跟 3940
喜 3941
衲 3942
驷 3943
场 3944
米 3945
裕 3946
疲 3947
n 3948
岫 3949
缇 3950
喵 3951
晚 3952
酩 3953
屣 3954
巴 3955
啉 3956
订 3957
顯 3958
el 3959
狭 3960
抌 3961
胃 3962
式 3963
誥 3964
詠 3965
蜇 3966
蝣 3967
膺 3968
酉 3969
痱 3970
ch 3971
dge 3972
譽 3973
瑜 3974
共 3975
纳 3976
颉 3977
氯 3978
香 3979
wom@@ 3980
虎 3981
沪 3982
ven@@ 3983
啱 3984
幅 3985
踢 3986
踩 3987
妤 3988
丑 3989
惺 3990
崃 3991
af@@ 3992
题 3993
惚 3994
鹰 3995
应 3996
黏 3997
舒 3998
霸 3999
週 4000
sch@@ 4001
幚 4002
囝 4003
音 4004
瞥 4005
cap@@ 4006
尝 4007
陣 4008
朐 4009
呆 4010
痞 4011
衩 4012
艘 4013
況 4014
谄 4015
封 4016
犀 4017
付 4018
潢 4019
ent@@ 4020
ig@@ 4021
顫 4022
苟 4023
擴 4024
環 4025
over@@ 4026
幾 4027
接 4028
僭 4029
not 4030
運 4031
詳 4032
ages 4033
滘 4034
滲 4035
泸 4036
video 4037
莢 4038
幻 4039
千 4040
绩 4041
囵 4042
猪 4043
賴 4044
梆 4045
崩 4046
with 4047
稱 4048
唇 4049
萺 4050
英 4051
難 4052
蹑 4053
謾 4054
寸 4055
飖 4056
榄 4057
濑 4058
絹 4059
闻 4060
web 4061
笳 4062
tag@@ 4063
菌 4064
誠 4065
袭 4066
also 4067
婦 4068
芥 4069
鋒 4070
狽 4071
绯 4072
借 4073
币 4074
牖 4075
仍 4076
剛 4077
數 4078
翎 4079
演 4080
嫁 4081
暄 4082
撫 4083
示 4084
谭 4085
皋 4086
鐵 4087
評 4088
针 4089
扣 4090
昕 4091
说 4092
侏 4093
釉 4094
锵 4095
银 4096
what 4097
脷 4098
頰 4099
果 4100
嗣 4101
檢 4102
柿 4103
羅 4104
厅 4105
淳 4106
蝶 4107
傳 4108
跡 4109
隆 4110
神 4111
按 4112
郁 4113
stem 4114
哂 4115
票 4116
廓 4117
躲 4118
gener@@ 4119
ghts 4120
货 4121
菅 4122
搜 4123
颗 4124
mat@@ 4125
柵 4126
蔽 4127
允 4128
粘 4129
砺 4130
援 4131
椿 4132
巧 4133
莹 4134
tw@@ 4135
菡 4136
訊 4137
補 4138
貿 4139
赡 4140
鄧 4141
釘 4142
渣 4143
蜡 4144
狂 4145
斡 4146
茴 4147
諾 4148
礙 4149
纽 4150
娘 4151
钥 4152
觎 4153
趁 4154
乌 4155
畢 4156
玉 4157
獐 4158
捋 4159
忏 4160
褸 4161
惠 4162
驟 4163
臨 4164
赏 4165
撺 4166
朵 4167
盂 4168
pro@@ 4169
玥 4170
靛 4171
了 4172
锅 4173
葺 4174
闖 4175
az@@ 4176
次 4177
辑 4178
str@@ 4179
every 4180
婻 4181
哑 4182
穗 4183
垠 4184
嬓 4185
詹 4186
扶 4187
警 4188
彩 4189
承 4190
挡 4191
劵 4192
虐 4193
娱 4194
葦 4195
謙 4196
庚 4197
焜 4198
芭 4199
晔 4200
仪 4201
then 4202
wat@@ 4203
岗 4204
鉗 4205
硷 4206
indi@@ 4207
驼 4208
齿 4209
祝 4210
公 4211
氤 4212
愚 4213
搅 4214
着 4215
索 4216
痾 4217
扬 4218
掺 4219
监 4220
游 4221
哗 4222
cr@@ 4223
炜 4224
漣 4225
燠 4226
揣 4227
謝 4228
颇 4229
stor@@ 4230
蜈 4231
扔 4232
鸡 4233
躑 4234
贺 4235
辞 4236
邗 4237
蛰 4238
sour@@ 4239
欧 4240
蕃 4241
揖 4242
瘌 4243
毽 4244
骤 4245
课 4246
sure 4247
辅 4248
礴 4249
谗 4250
think 4251
adv@@ 4252
葳 4253
跶 4254
sal@@ 4255
廳 4256
迭 4257
该 4258
吆 4259
ere 4260
刃 4261
余 4262
耒 4263
蓟 4264
皙 4265
陵 4266
ld 4267
粿 4268
簪 4269
复 4270
臺 4271
喚 4272
銳 4273
靈 4274
鱼 4275
萃 4276
鴇 4277
罘 4278
氈 4279
兑 4280
竊 4281
瞪 4282
係 4283
筠 4284
牽 4285
名 4286
前 4287
圈 4288
拔 4289
鑫 4290
力 4291
釋 4292
俨 4293
enti@@ 4294
人 4295
ki@@ 4296
琐 4297
炯 4298
技 4299
衬 4300
鴨 4301
靂 4302
討 4303
ster 4304
帅 4305
夕 4306
恸 4307
籮 4308
滤 4309
睇 4310
片 4311
儀 4312
興 4313
蚤 4314
卤 4315
e 4316
约 4317
硖 4318
罐 4319
infor@@ 4320
ace 4321
貞 4322
晉 4323
详 4324
ine 4325
置 4326
入 4327
cre@@ 4328
譚 4329
fr@@ 4330
田 4331
盡 4332
瘤 4333
填 4334
径 4335
歛 4336
囂 4337
阎 4338
稍 4339
聩 4340
薮 4341
n@@ 4342
幡 4343
销 4344
顆 4345
扫 4346
翼 4347
凭 4348
聚 4349
铤 4350
亭 4351
昀 4352
氟 4353
撲 4354
罰 4355
ices 4356
忐 4357
els 4358
敵 4359
粕 4360
巽 4361
焊 4362
甩 4363
豹 4364
駕 4365
簇 4366
桎 4367
need 4368
撕 4369
遄 4370
廋 4371
貔 4372
束 4373
鹑 4374
mar@@ 4375
古 4376
loo@@ 4377
ha@@ 4378
舉 4379
哦 4380
恣 4381
姦 4382
喎 4383
削 4384
剌 4385
嬅 4386
谬 4387
汁 4388
綜 4389
疏 4390
磬 4391
慎 4392
could 4393
撑 4394
陈 4395
霑 4396
et 4397
by 4398
饅 4399
捌 4400
嗥 4401
泡 4402
紹 4403
馆 4404
收 4405
茶 4406
湃 4407
耿 4408
锤 4409
鲸 4410
瓜 4411
室 4412
ci@@ 4413
讹 4414
serv@@ 4415
忙 4416
饩 4417
磯 4418
鬥 4419
噃 4420
哔 4421
羁 4422
困 4423
附 4424
抵 4425
men@@ 4426
灼 4427
酮 4428
昨 4429
sible 4430
徇 4431
stre@@ 4432
堕 4433
状 4434
洙 4435
死 4436
蝴 4437
躝 4438
ch@@ 4439
莺 4440
炅 4441
吖 4442
懇 4443
噻 4444
梭 4445
殞 4446
闋 4447
诿 4448
挎 4449
尋 4450
递 4451
噱 4452
歹 4453
戥 4454
珉 4455
兩 4456
姓 4457
琴 4458
捽 4459
ric@@ 4460
疵 4461
钻 4462
莫 4463
鬟 4464
聰 4465
锗 4466
胺 4467
協 4468
畲 4469
fre@@ 4470
匠 4471
楚 4472
餑 4473
铐 4474
癯 4475
瀾 4476
咆 4477
诱 4478
衷 4479
閏 4480
育 4481
拈 4482
美 4483
熒 4484
意 4485
溺 4486
梦 4487
锲 4488
迫 4489
崀 4490
bor@@ 4491
跃 4492
醴 4493
going 4494
抓 4495
加 4496
掘 4497
碎 4498
琇 4499
禾 4500
sel@@ 4501
摺 4502
鳌 4503
诮 4504
景 4505
睿 4506
厮 4507
甜 4508
鸪 4509
糗 4510
拢 4511
鵡 4512
骄 4513
耕 4514
黚 4515
婪 4516
滌 4517
癦 4518
祿 4519
當 4520
讷 4521
娄 4522
嚴 4523
噬 4524
袁 4525
首 4526
柄 4527
鬣 4528
药 4529
推 4530
耐 4531
璨 4532
dr@@ 4533
冤 4534
don't 4535
滦 4536
齁 4537
忟 4538
杆 4539
圑 4540
com@@ 4541
迸 4542
巔 4543
祯 4544
猙 4545
的 4546
ween 4547
any 4548
躪 4549
黔 4550
gh 4551
猕 4552
漁 4553
mus@@ 4554
汴 4555
但 4556
ic 4557
love 4558
讀 4559
痣 4560
咳 4561
躯 4562
馄 4563
忘 4564
抚 4565
飾 4566
绚 4567
徂 4568
鬠 4569
燼 4570
戇 4571
鵼 4572
霞 4573
椏 4574
posi@@ 4575
徕 4576
he 4577
鹜 4578
趨 4579
狎 4580
筵 4581
斗 4582
丁 4583
汐 4584
肨 4585
鈞 4586
子 4587
諭 4588
dom@@ 4589
項 4590
镳 4591
粟 4592
立 4593
揀 4594
橙 4595
啽 4596
荥 4597
闆 4598
闷 4599
窒 4600
讵 4601
hel@@ 4602
楂 4603
函 4604
衮 4605
慄 4606
缀 4607
ni@@ 4608
屌 4609
哺 4610
倍 4611
about 4612
泵 4613
杷 4614
棘 4615
幔 4616
蹂 4617
陟 4618
鑒 4619
脯 4620
豔 4621
there 4622
綴 4623
攸 4624
伶 4625
奴 4626
连 4627
尧 4628
绎 4629
緯 4630
桢 4631
华 4632
髯 4633
吩 4634
萱 4635
母 4636
属 4637
ple 4638
ev@@ 4639
正 4640
硕 4641
曝 4642
矜 4643
攙 4644
盞 4645
皱 4646
low@@ 4647
啲 4648
蒸 4649
逸 4650
鏖 4651
so@@ 4652
食 4653
阑 4654
蜿 4655
邯 4656
鑊 4657
馥 4658
蘋 4659
劑 4660
氹 4661
徐 4662
some@@ 4663
垢 4664
sa@@ 4665
廣 4666
驅 4667
ause 4668
槁 4669
杼 4670
珍 4671
怄 4672
汗 4673
轼 4674
漈 4675
苞 4676
褲 4677
唷 4678
沆 4679
胭 4680
蹩 4681
悻 4682
浦 4683
涕 4684
the@@ 4685
go 4686
義 4687
剑 4688
呃 4689
呯 4690
艳 4691
華 4692
寶 4693
莒 4694
膩 4695
旎 4696
咒 4697
距 4698
沉 4699
劾 4700
no 4701
蔭 4702
易 4703
颠 4704
粮 4705
痼 4706
澄 4707
泼 4708
绻 4709
酷 4710
罍 4711
ited 4712
r 4713
is 4714
品 4715
l 4716
颍 4717
amer@@ 4718
栢 4719
灕 4720
叛 4721
樺 4722
餸 4723
物 4724
這 4725
翟 4726
旮 4727
矬 4728
烃 4729
樣 4730
渚 4731
啋 4732
蚝 4733
略 4734
my@@ 4735
pat@@ 4736
頂 4737
荚 4738
含 4739
di@@ 4740
es 4741
氾 4742
瑕 4743
瘸 4744
like 4745
邁 4746
湴 4747
眼 4748
槟 4749
暇 4750
梯 4751
津 4752
辄 4753
茏 4754
get 4755
鍥 4756
溆 4757
得 4758
渌 4759
萋 4760
牙 4761
攢 4762
狍 4763
婀 4764
摧 4765
僱 4766
闳 4767
踮 4768
德 4769
拷 4770
怔 4771
饮 4772
沁 4773
亮 4774
吨 4775
锦 4776
沛 4777
牍 4778
芃 4779
fin@@ 4780
汹 4781
嘻 4782
慊 4783
藤 4784
嵯 4785
洛 4786
務 4787
岌 4788
耀 4789
持 4790
曱 4791
鯁 4792
珈 4793
諺 4794
佤 4795
蟋 4796
狡 4797
犯 4798
泉 4799
高 4800
珀 4801
饭 4802
無 4803
箴 4804
即 4805
俗 4806
pos@@ 4807
壤 4808
作 4809
奮 4810
襤 4811
躺 4812
掐 4813
椤 4814
肺 4815
傅 4816
徹 4817
欸 4818
麦 4819
鎏 4820
站 4821
湜 4822
諦 4823
壮 4824
約 4825
ual 4826
孑 4827
貨 4828
凉 4829
蔥 4830
倦 4831
铿 4832
始 4833
贮 4834
镶 4835
客 4836
巅 4837
咧 4838
馨 4839
评 4840
叩 4841
娌 4842
唬 4843
燎 4844
矯 4845
烦 4846
ice 4847
宓 4848
坠 4849
蝉 4850
叮 4851
寒 4852
匱 4853
comple@@ 4854
芽 4855
棚 4856
扑 4857
褴 4858
沏 4859
颤 4860
荟 4861
館 4862
裤 4863
肋 4864
骼 4865
簁 4866
聳 4867
哈 4868
句 4869
蝗 4870
婕 4871
he@@ 4872
螃 4873
鄢 4874
博 4875
崆 4876
捷 4877
膻 4878
晗 4879
權 4880
颚 4881
序 4882
禽 4883
off 4884
髻 4885
題 4886
尴 4887
犢 4888
金 4889
低 4890
劣 4891
je@@ 4892
佯 4893
擗 4894
贿 4895
赠 4896
鉴 4897
风 4898
鍛 4899
純 4900
毗 4901
株 4902
busin@@ 4903
憂 4904
頤 4905
闩 4906
观 4907
倌 4908
腮 4909
self 4910
骝 4911
免 4912
瞟 4913
塆 4914
捅 4915
氏 4916
跷 4917
苑 4918
繭 4919
镜 4920
咁 4921
蝙 4922
野 4923
胞 4924
佩 4925
ide@@ 4926
how 4927
鎮 4928
坤 4929
断 4930
採 4931
舜 4932
欠 4933
咥 4934
阻 4935
伏 4936
蹤 4937
親 4938
蕾 4939
照 4940
胄 4941
僚 4942
锕 4943
粪 4944
蜒 4945
欖 4946
潲 4947
祲 4948
蚪 4949
布 4950
懷 4951
恋 4952
col@@ 4953
绌 4954
age 4955
利 4956
底 4957
ade 4958
炖 4959
贖 4960
骏 4961
dn't 4962
啁 4963
伎 4964
蝇 4965
熾 4966
讒 4967
胳 4968
椒 4969
嬛 4970
掣 4971
展 4972
嘎 4973
窜 4974
族 4975
嘉 4976
佮 4977
never 4978
doc@@ 4979
廈 4980
灌 4981
撞 4982
阮 4983
视 4984
醍 4985
餉 4986
圖 4987
碩 4988
榛 4989
腾 4990
ob@@ 4991
om@@ 4992
琅 4993
癮 4994
腼 4995
餡 4996
咝 4997
譴 4998
軚 4999
瞌 5000
哧 5001
庾 5002
璀 5003
妯 5004
佃 5005
蓀 5006
州 5007
sh@@ 5008
con@@ 5009
俠 5010
卡 5011
僆 5012
吴 5013
餞 5014
罕 5015
ent 5016
dat@@ 5017
濁 5018
獷 5019
該 5020
悬 5021
墟 5022
铮 5023
墅 5024
鮟 5025
産 5026
韦 5027
躊 5028
審 5029
莱 5030
u@@ 5031
sum@@ 5032
阕 5033
伯 5034
錫 5035
彖 5036
撬 5037
桡 5038
int 5039
苇 5040
漿 5041
箍 5042
扥 5043
陽 5044
对 5045
ans@@ 5046
曦 5047
摇 5048
捻 5049
愠 5050
ex@@ 5051
around 5052
披 5053
傣 5054
踭 5055
凶 5056
悄 5057
直 5058
詛 5059
昴 5060
恻 5061
耋 5062
ting 5063
杞 5064
佚 5065
癡 5066
se 5067
煙 5068
殤 5069
奂 5070
st 5071
顛 5072
肚 5073
砖 5074
ill 5075
down 5076
哟 5077
融 5078
蚵 5079
滉 5080
厉 5081
枷 5082
臻 5083
昭 5084
栽 5085
嫪 5086
灭 5087
诙 5088
浠 5089
mic@@ 5090
抛 5091
閒 5092
谆 5093
put 5094
釦 5095
围 5096
渴 5097
all@@ 5098
柠 5099
囡 5100
觳 5101
郫 5102
懦 5103
淒 5104
坏 5105
仄 5106
-@@ 5107
稟 5108
曖 5109
after 5110
夫 5111
敷 5112
鏈 5113
ti@@ 5114
宅 5115
梳 5116
簽 5117
双 5118
眠 5119
嗝 5120
師 5121
any@@ 5122
响 5123
法 5124
誇 5125
匍 5126
mem@@ 5127
z 5128
啶 5129
寮 5130
依 5131
獰 5132
洄 5133
蛳 5134
睛 5135
禅 5136
滟 5137
逹 5138
妻 5139
召 5140
圣 5141
檯 5142
偓 5143
貸 5144
疑 5145
仨 5146
斧 5147
毒 5148
畸 5149
勾 5150
when 5151
乸 5152
骜 5153
官 5154
腎 5155
惹 5156
娓 5157
岡 5158
抽 5159
谈 5160
ner 5161
蛩 5162
彎 5163
wit@@ 5164
栾 5165
觐 5166
渺 5167
画 5168
consi@@ 5169
蟛 5170
壘 5171
荸 5172
薰 5173
坊 5174
睨 5175
缸 5176
伞 5177
詐 5178
陀 5179
o@@ 5180
free 5181
ement 5182
num@@ 5183
衍 5184
髒 5185
綢 5186
判 5187
誕 5188
烩 5189
鸬 5190
匆 5191
姗 5192
纭 5193
獒 5194
闹 5195
埂 5196
塢 5197
思 5198
侠 5199
煳 5200
键 5201
够 5202
殮 5203
妃 5204
詮 5205
幕 5206
藿 5207
穿 5208
俐 5209
gi@@ 5210
費 5211
礫 5212
坛 5213
臜 5214
程 5215
bet@@ 5216
逵 5217
插 5218
肽 5219
sou@@ 5220
霎 5221
谷 5222
嗜 5223
褐 5224
间 5225
侵 5226
肆 5227
檳 5228
炉 5229
遵 5230
鹩 5231
圃 5232
苏 5233
att@@ 5234
搗 5235
崮 5236
p@@ 5237
port 5238
谍 5239
豪 5240
坽 5241
份 5242
菓 5243
fe 5244
慣 5245
今 5246
茎 5247
硝 5248
well 5249
攻 5250
焉 5251
豆 5252
鱿 5253
ality 5254
哨 5255
蔗 5256
碛 5257
嘰 5258
骷 5259
惴 5260
琏 5261
玟 5262
骈 5263
search 5264
k@@ 5265
槎 5266
疟 5267
ve 5268
part 5269
憤 5270
騮 5271
蕙 5272
衽 5273
报 5274
厄 5275
寢 5276
崇 5277
ash@@ 5278
負 5279
铂 5280
鮮 5281
緩 5282
兄 5283
潘 5284
inter@@ 5285
头 5286
阐 5287
cro@@ 5288
區 5289
窄 5290
棗 5291
唎 5292
hi@@ 5293
ar@@ 5294
费 5295
貪 5296
仅 5297
驕 5298
祈 5299
cle@@ 5300
瘦 5301
屍 5302
搂 5303
洁 5304
快 5305
丟 5306
篝 5307
喽 5308
胡 5309
髫 5310
矱 5311
贴 5312
蕤 5313
芯 5314
箭 5315
独 5316
逞 5317
薔 5318
迳 5319
遇 5320
苫 5321
艮 5322
衿 5323
撂 5324
緲 5325
破 5326
掛 5327
憫 5328
辈 5329
噤 5330
释 5331
抢 5332
me 5333
information 5334
鸭 5335
浔 5336
抗 5337
胶 5338
帖 5339
舸 5340
告 5341
愧 5342
酬 5343
咪 5344
聞 5345
棉 5346
艾 5347
韶 5348
桔 5349
鍾 5350
羿 5351
挥 5352
齡 5353
砍 5354
霜 5355
忾 5356
硫 5357
鼎 5358
狗 5359
协 5360
than@@ 5361
拆 5362
氲 5363
仕 5364
boo@@ 5365
種 5366
瀰 5367
率 5368
猷 5369
记 5370
弛 5371
唂 5372
晩 5373
锟 5374
绳 5375
柴 5376
蘅 5377
棵 5378
重 5379
甸 5380
f@@ 5381
痉 5382
嫩 5383
称 5384
寐 5385
冲 5386
lear@@ 5387
蛮 5388
something 5389
荽 5390
架 5391
炎 5392
炷 5393
父 5394
said 5395
藹 5396
蘇 5397
烛 5398
be 5399
九 5400
煅 5401
剽 5402
缱 5403
榉 5404
睏 5405
land 5406
耳 5407
姿 5408
缜 5409
爾 5410
俯 5411
of 5412
丙 5413
窈 5414
伦 5415
任 5416
呻 5417
pt 5418
石 5419
則 5420
洋 5421
飚 5422
癲 5423
used 5424
层 5425
our 5426
厭 5427
徑 5428
訓 5429
豐 5430
蕪 5431
俹 5432
挾 5433
兜 5434
溟 5435
愉 5436
种 5437
煦 5438
殭 5439
玻 5440
潭 5441
挐 5442
妈 5443
硒 5444
痪 5445
杨 5446
埞 5447
怦 5448
垛 5449
玮 5450
乐 5451
亁 5452
鏽 5453
medi@@ 5454
隧 5455
觉 5456
殓 5457
缭 5458
臥 5459
璞 5460
胁 5461
溃 5462
log@@ 5463
耙 5464
讥 5465
簸 5466
writ@@ 5467
榷 5468
po@@ 5469
磨 5470
最 5471
達 5472
嫖 5473
塵 5474
sec@@ 5475
寄 5476
猄 5477
扳 5478
睺 5479
臊 5480
real 5481
雑 5482
挈 5483
蹻 5484
ful 5485
but 5486
時 5487
chec@@ 5488
wing 5489
翩 5490
ing 5491
捲 5492
窮 5493
殘 5494
盜 5495
遙 5496
莨 5497
帽 5498
馅 5499
膳 5500
唏 5501
指 5502
and 5503
諜 5504
唞 5505
編 5506
您 5507
缝 5508
瘴 5509
綵 5510
屯 5511
whe@@ 5512
差 5513
店 5514
某 5515
油 5516
離 5517
志 5518
垭 5519
糬 5520
辜 5521
太 5522
钓 5523
獭 5524
恤 5525
bri@@ 5526
亥 5527
艰 5528
谙 5529
孵 5530
陸 5531
霍 5532
毯 5533
淖 5534
world 5535
篱 5536
寧 5537
骨 5538
枚 5539
瑚 5540
笕 5541
聪 5542
苣 5543
鴻 5544
奚 5545
跖 5546
much 5547
衫 5548
邸 5549
en@@ 5550
鲗 5551
榻 5552
睹 5553
涟 5554
器 5555
系 5556
鳖 5557
洲 5558
ra@@ 5559
霁 5560
俘 5561
ded 5562
濡 5563
壆 5564
氰 5565
驹 5566
蓄 5567
ale 5568
闫 5569
such 5570
祥 5571
窍 5572
噼 5573
淑 5574
颱 5575
囖 5576
ate@@ 5577
锄 5578
鹚 5579
巢 5580
翹 5581
脫 5582
擁 5583
謖 5584
瓤 5585
黯 5586
录 5587
甲 5588
钭 5589
替 5590
謢 5591
臣 5592
岚 5593
骯 5594
娆 5595
鈴 5596
ther 5597
馳 5598
偉 5599
扱 5600
甫 5601
襁 5602
淫 5603
糯 5604
聊 5605
倭 5606
sup@@ 5607
洌 5608
畐 5609
碧 5610
劳 5611
嘘 5612
炳 5613
厲 5614
痴 5615
蔔 5616
稚 5617
懶 5618
西 5619
顾 5620
笏 5621
been 5622
泯 5623
蛊 5624
苍 5625
仵 5626
矇 5627
八 5628
渡 5629
ass@@ 5630
攔 5631
舨 5632
t@@ 5633
嬸 5634
哋 5635
涼 5636
heal@@ 5637
宛 5638
落 5639
ical 5640
瑤 5641
ving 5642
珒 5643
井 5644
铆 5645
康 5646
吹 5647
剖 5648
墨 5649
擇 5650
逛 5651
瑆 5652
耻 5653
茭 5654
飆 5655
點 5656
挛 5657
缽 5658
騰 5659
肾 5660
禄 5661
擎 5662
蔡 5663
ju@@ 5664
徒 5665
饨 5666
喝 5667
淆 5668
sm@@ 5669
節 5670
摆 5671
皮 5672
輋 5673
m@@ 5674
腑 5675
穆 5676
those 5677
料 5678
枪 5679
徵 5680
虽 5681
煸 5682
gre@@ 5683
bur@@ 5684
倚 5685
脾 5686
鬓 5687
張 5688
呕 5689
year 5690
ames 5691
诸 5692
賓 5693
腕 5694
锷 5695
务 5696
蹿 5697
瑰 5698
檫 5699
上 5700
躁 5701
迤 5702
泊 5703
字 5704
籤 5705
葱 5706
灿 5707
sing 5708
宏 5709
軀 5710
蜢 5711
呈 5712
嚡 5713
誌 5714
娴 5715
想 5716
谁 5717
错 5718
團 5719
様 5720
谏 5721
骅 5722
琬 5723
恳 5724
絨 5725
鼐 5726
vel@@ 5727
們 5728
波 5729
歧 5730
党 5731
鵝 5732
嘔 5733
裏 5734
萸 5735
礤 5736
蕞 5737
惟 5738
兒 5739
喉 5740
able 5741
冉 5742
pl@@ 5743
喑 5744
潤 5745
樱 5746
姹 5747
虔 5748
歉 5749
ates 5750
唑 5751
文 5752
稽 5753
殉 5754
铱 5755
篓 5756
彬 5757
疗 5758
'@@ 5759
觴 5760
喀 5761
藐 5762
恢 5763
沒 5764
元 5765
企 5766
駱 5767
愛 5768
yes 5769
菲 5770
抒 5771
贏 5772
碼 5773
籍 5774
謬 5775
袂 5776
冮 5777
栉 5778
浈 5779
乩 5780
夜 5781
family 5782
苲 5783
脹 5784
赋 5785
try 5786
翁 5787
忸 5788
霹 5789
蚕 5790
也 5791
眞 5792
减 5793
喪 5794
撥 5795
sim@@ 5796
姣 5797
vie@@ 5798
um 5799
蜀 5800
遛 5801
熬 5802
鑑 5803
体 5804
笈 5805
囫 5806
彟 5807
秣 5808
短 5809
禱 5810
饞 5811
盼 5812
劖 5813
胸 5814
暈 5815
孽 5816
祃 5817
乒 5818
槍 5819
蟝 5820
牒 5821
fic@@ 5822
阱 5823
枝 5824
螂 5825
纱 5826
陝 5827
da@@ 5828
梅 5829
扂 5830
夺 5831
阳 5832
映 5833
吕 5834
旭 5835
渗 5836
煠 5837
秭 5838
they 5839
孭 5840
ents 5841
严 5842
皈 5843
蜥 5844
惆 5845
獻 5846
痤 5847
邛 5848
伸 5849
马 5850
火 5851
name 5852
壽 5853
茬 5854
輝 5855
缅 5856
嫉 5857
驢 5858
缕 5859
that's 5860
繼 5861
唉 5862
蔺 5863
鲤 5864
榧 5865
u 5866
雁 5867
若 5868
拟 5869
鲊 5870
谎 5871
do@@ 5872
ard 5873
ve@@ 5874
玩 5875
峰 5876
ell@@ 5877
杰 5878
ys 5879
酌 5880
敘 5881
裸 5882
街 5883
ments 5884
涅 5885
呗 5886
锁 5887
驺 5888
贈 5889
報 5890
鲨 5891
懋 5892
卓 5893
盲 5894
拉 5895
横 5896
號 5897
壞 5898
耘 5899
these 5900
姐 5901
獸 5902
nex@@ 5903
六 5904
眷 5905
贅 5906
以 5907
堡 5908
碟 5909
fore 5910
汪 5911
now 5912
误 5913
荨 5914
啫 5915
ome@@ 5916
圆 5917
簫 5918
兢 5919
夸 5920
涮 5921
枯 5922
鲷 5923
繳 5924
嵊 5925
尹 5926
拎 5927
秘 5928
購 5929
帚 5930
ange 5931
薛 5932
靑 5933
辘 5934
拽 5935
ply 5936
盾 5937
eci@@ 5938
欽 5939
契 5940
h@@ 5941
兽 5942
滴 5943
詼 5944
逅 5945
何 5946
憾 5947
om 5948
門 5949
章 5950
咇 5951
揿 5952
浇 5953
ful@@ 5954
ay 5955
倆 5956
棣 5957
oc@@ 5958
符 5959
啊 5960
忡 5961
侥 5962
受 5963
祀 5964
啟 5965
撰 5966
跨 5967
過 5968
危 5969
埗 5970
婢 5971
鹦 5972
攫 5973
盯 5974
气 5975
logy 5976
崑 5977
too 5978
诛 5979
秅 5980
ici@@ 5981
du@@ 5982
宦 5983
膽 5984
餚 5985
ta@@ 5986
橛 5987
瘋 5988
铝 5989
而 5990
絡 5991
騎 5992
蛙 5993
廂 5994
構 5995
筒 5996
夥 5997
赧 5998
静 5999
囊 6000
侍 6001
ol@@ 6002
札 6003
亦 6004
wa@@ 6005
抄 6006
say 6007
辭 6008
ri@@ 6009
home 6010
up@@ 6011
驿 6012
遽 6013
版 6014
ter@@ 6015
坜 6016
烂 6017
online 6018
饽 6019
im@@ 6020
丨 6021
吁 6022
稗 6023
遁 6024
青 6025
乙 6026
吐 6027
癢 6028
take 6029
赴 6030
dic@@ 6031
草 6032
裾 6033
佰 6034
徬 6035
沙 6036
ris@@ 6037
穀 6038
潺 6039
镇 6040
冪 6041
豬 6042
习 6043
刋 6044
互 6045
雄 6046
盈 6047
震 6048
熨 6049
赳 6050
害 6051
俦 6052
銮 6053
good 6054
阿 6055
蕨 6056
岳 6057
桷 6058
搭 6059
寫 6060
帙 6061
鎳 6062
胱 6063
嗤 6064
瞿 6065
幣 6066
杭 6067
跎 6068
many 6069
mon@@ 6070
箋 6071
空 6072
批 6073
爰 6074
health 6075
集 6076
body 6077
擀 6078
璐 6079
葚 6080
巍 6081
眺 6082
挟 6083
掃 6084
橱 6085
買 6086
黄 6087
婵 6088
暑 6089
咨 6090
锡 6091
狩 6092
致 6093
概 6094
喘 6095
嵐 6096
par@@ 6097
兇 6098
襯 6099
轿 6100
冬 6101
嫐 6102
导 6103
娟 6104
盎 6105
慢 6106
ker 6107
檀 6108
斟 6109
搞 6110
斯 6111
啤 6112
弑 6113
弘 6114
right 6115
偲 6116
縠 6117
胧 6118
腔 6119
莼 6120
blo@@ 6121
澧 6122
蒲 6123
攏 6124
锏 6125
瓶 6126
末 6127
稳 6128
埼 6129
臉 6130
訏 6131
醚 6132
罂 6133
贫 6134
私 6135
碾 6136
蜊 6137
粲 6138
琳 6139
羔 6140
er 6141
宫 6142
肴 6143
莓 6144
揶 6145
黐 6146
汀 6147
诠 6148
刀 6149
漓 6150
茧 6151
c@@ 6152
褒 6153
踏 6154
雨 6155
拂 6156
椟 6157
憧 6158
把 6159
礡 6160
ings 6161
好 6162
赖 6163
帘 6164
后 6165
腌 6166
泶 6167
鬯 6168
閎 6169
way 6170
摯 6171
惭 6172
絮 6173
驶 6174
薹 6175
印 6176
无 6177
ever 6178
榔 6179
書 6180
莲 6181
骹 6182
韭 6183
淬 6184
big 6185
鹄 6186
晃 6187
怒 6188
晝 6189
山 6190
蚜 6191
牺 6192
歎 6193
奈 6194
顱 6195
皎 6196
des 6197
谐 6198
簌 6199
偕 6200
郎 6201
蔷 6202
蚂 6203
old 6204
钋 6205
髹 6206
組 6207
蝠 6208
頸 6209
涂 6210
cust@@ 6211
崂 6212
翡 6213
惮 6214
钛 6215
琮 6216
made 6217
畋 6218
嶽 6219
捱 6220
矾 6221
emp@@ 6222
雇 6223
识 6224
祛 6225
甚 6226
扮 6227
鍋 6228
贻 6229
tu@@ 6230
窟 6231
雀 6232
幼 6233
陜 6234
塔 6235
涓 6236
轉 6237
dre@@ 6238
糾 6239
懸 6240
lar@@ 6241
城 6242
擝 6243
砭 6244
傻 6245
測 6246
尉 6247
佟 6248
脏 6249
蓮 6250
慨 6251
舢 6252
屹 6253
赃 6254
呔 6255
擱 6256
谧 6257
滕 6258
诟 6259
攮 6260
狮 6261
庐 6262
嗚 6263
茵 6264
篡 6265
脓 6266
瘙 6267
固 6268
辦 6269
揆 6270
軻 6271
sig@@ 6272
眨 6273
虛 6274
骟 6275
鸽 6276
攝 6277
槌 6278
戏 6279
开 6280
棧 6281
揠 6282
揦 6283
坦 6284
翦 6285
鞭 6286
斷 6287
万 6288
酿 6289
嗽 6290
跳 6291
煌 6292
麒 6293
褭 6294
校 6295
鼬 6296
踪 6297
轻 6298
倫 6299
蕴 6300
弋 6301
敛 6302
禧 6303
嗞 6304
烙 6305
呎 6306
蘭 6307
诨 6308
螢 6309
堪 6310
纜 6311
sear@@ 6312
ang@@ 6313
lan@@ 6314
佝 6315
茂 6316
库 6317
珊 6318
戶 6319
痰 6320
獾 6321
紥 6322
晾 6323
癸 6324
幟 6325
吟 6326
訟 6327
own 6328
篪 6329
谀 6330
槳 6331
錄 6332
pa@@ 6333
痍 6334
櫻 6335
探 6336
坚 6337
位 6338
蓉 6339
侃 6340
恃 6341
貶 6342
揮 6343
狄 6344
邂 6345
鳄 6346
ge@@ 6347
穹 6348
薪 6349
黒 6350
拴 6351
沦 6352
蹄 6353
聖 6354
牟 6355
综 6356
fu@@ 6357
恆 6358
亏 6359
賃 6360
惫 6361
议 6362
餅 6363
搔 6364
喳 6365
隙 6366
should 6367
潮 6368
学 6369
扪 6370
猫 6371
和 6372
乾 6373
併 6374
ment 6375
戍 6376
痹 6377
th@@ 6378
ses 6379
时 6380
返 6381
祷 6382
怖 6383
濮 6384
yo@@ 6385
慚 6386
缯 6387
pre@@ 6388
ally 6389
ia 6390
why 6391
君 6392
inv@@ 6393
济 6394
玄 6395
弸 6396
徘 6397
镊 6398
豇 6399
訕 6400
秩 6401
旋 6402
鲲 6403
duc@@ 6404
檐 6405
胤 6406
阜 6407
coun@@ 6408
燭 6409
辂 6410
觀 6411
爸 6412
耶 6413
磁 6414
ect 6415
責 6416
惱 6417
彻 6418
蕻 6419
遨 6420
磅 6421
拓 6422
揩 6423
蕊 6424
續 6425
ily 6426
宾 6427
仙 6428
擦 6429
決 6430
here 6431
輩 6432
仟 6433
蚀 6434
扁 6435
装 6436
牡 6437
笃 6438
涣 6439
歐 6440
翠 6441
ked 6442
卸 6443
纡 6444
produc@@ 6445
峋 6446
哀 6447
郝 6448
鎗 6449
翘 6450
迢 6451
嫘 6452
vi@@ 6453
泷 6454
de@@ 6455
皂 6456
瀟 6457
堞 6458
歩 6459
茛 6460
购 6461
膈 6462
毆 6463
姨 6464
肠 6465
扎 6466
鈕 6467
辖 6468
can 6469
毕 6470
样 6471
狀 6472
on 6473
gan@@ 6474
j 6475
襶 6476
gro@@ 6477
閃 6478
簡 6479
啞 6480
炸 6481
蘑 6482
娇 6483
ite 6484
粹 6485
疾 6486
呖 6487
較 6488
on@@ 6489
崙 6490
岛 6491
蚯 6492
这 6493
窨 6494
拥 6495
樹 6496
篁 6497
趾 6498
誨 6499
垌 6500
恵 6501
帆 6502
衾 6503
矗 6504
欺 6505
卢 6506
审 6507
热 6508
膏 6509
re 6510
凤 6511
iz@@ 6512
ru@@ 6513
觫 6514
擏 6515
or@@ 6516
棲 6517
猿 6518
呜 6519
ars 6520
釐 6521
佬 6522
住 6523
耗 6524
脚 6525
証 6526
ust 6527
俾 6528
嚇 6529
燒 6530
tive 6531
莅 6532
永 6533
恥 6534
牢 6535
proble@@ 6536
掟 6537
铸 6538
黑 6539
淩 6540
屐 6541
cli@@ 6542
铵 6543
蘸 6544
部 6545
砸 6546
驳 6547
制 6548
day 6549
眈 6550
镓 6551
颐 6552
脸 6553
慾 6554
first 6555
仃 6556
蜻 6557
绿 6558
汲 6559
her@@ 6560
踦 6561
蚱 6562
猗 6563
谲 6564
匿 6565
烏 6566
昔 6567
鸮 6568
闪 6569
轮 6570
內 6571
啅 6572
却 6573
翊 6574
佢 6575
low 6576
殲 6577
饿 6578
泥 6579
钠 6580
毓 6581
蓦 6582
因 6583
倶 6584
潑 6585
舐 6586
顏 6587
瘡 6588
鉆 6589
end@@ 6590
筐 6591
嫂 6592
has 6593
肘 6594
慜 6595
蹼 6596
钢 6597
賣 6598
蛤 6599
嘆 6600
侈 6601
ze 6602
壁 6603
黴 6604
領 6605
绰 6606
穰 6607
pe@@ 6608
抠 6609
cou@@ 6610
夷 6611
霧 6612
哉 6613
頌 6614
铡 6615
睥 6616
籬 6617
聽 6618
val@@ 6619
橫 6620
酊 6621
瑣 6622
员 6623
坵 6624
些 6625
裘 6626
疼 6627
髭 6628
烯 6629
彦 6630
礎 6631
靖 6632
緊 6633
腫 6634
寃 6635
ship 6636
咂 6637
嫵 6638
普 6639
旆 6640
枞 6641
漲 6642
攜 6643
x 6644
縷 6645
鄱 6646
罉 6647
赎 6648
磜 6649
ces 6650
寻 6651
ar 6652
读 6653
敞 6654
二 6655
钧 6656
犬 6657
镑 6658
薦 6659
疙 6660
篇 6661
魅 6662
骐 6663
鴉 6664
pe 6665
溥 6666
濉 6667
关 6668
期 6669
劂 6670
lit@@ 6671
優 6672
呷 6673
丐 6674
lot 6675
刁 6676
铅 6677
ari@@ 6678
铢 6679
americ@@ 6680
詒 6681
sting 6682
泰 6683
栓 6684
桦 6685
ess@@ 6686
娑 6687
ap@@ 6688
央 6689
納 6690
hou@@ 6691
厌 6692
糞 6693
闰 6694
牧 6695
ining 6696
爛 6697
漸 6698
澆 6699
缤 6700
祐 6701
膑 6702
丼 6703
乎 6704
倒 6705
缂 6706
湘 6707
玺 6708
肓 6709
闸 6710
摄 6711
咎 6712
醮 6713
岑 6714
睬 6715
cur@@ 6716
桃 6717
藜 6718
龐 6719
als 6720
豁 6721
韻 6722
恐 6723
滞 6724
敬 6725
蛔 6726
镣 6727
港 6728
喊 6729
绽 6730
垱 6731
炝 6732
stri@@ 6733
灸 6734
輕 6735
嗖 6736
钺 6737
赞 6738
呣 6739
荃 6740
橘 6741
郅 6742
隶 6743
坂 6744
匐 6745
畿 6746
疹 6747
贷 6748
检 6749
id@@ 6750
貝 6751
苛 6752
岘 6753
慑 6754
婷 6755
ne@@ 6756
莎 6757
献 6758
胯 6759
谅 6760
適 6761
矮 6762
署 6763
調 6764
练 6765
馀 6766
迩 6767
東 6768
铳 6769
徜 6770
錘 6771
濂 6772
ist 6773
试 6774
make 6775
y 6776
箫 6777
蜉 6778
髦 6779
溴 6780
竹 6781
沸 6782
y@@ 6783
惘 6784
生 6785
rela@@ 6786
坐 6787
謔 6788
翌 6789
music 6790
見 6791
璇 6792
迁 6793
裱 6794
要 6795
幌 6796
夢 6797
缙 6798
狈 6799
嗔 6800
勒 6801
膛 6802
碰 6803
所 6804
複 6805
坌 6806
请 6807
策 6808
arti@@ 6809
婆 6810
價 6811
蜚 6812
駝 6813
市 6814
嘗 6815
絞 6816
簷 6817
脛 6818
莆 6819
胎 6820
鴦 6821
匣 6822
訚 6823
囹 6824
work 6825
嚨 6826
as@@ 6827
熠 6828
蹙 6829
待 6830
ations 6831
妝 6832
楣 6833
歙 6834
疡 6835
than 6836
埕 6837
宕 6838
曈 6839
麂 6840
铲 6841
漠 6842
认 6843
丧 6844
years 6845
镁 6846
汶 6847
烧 6848
贤 6849
鲟 6850
喏 6851
臍 6852
遼 6853
笨 6854
娣 6855
誉 6856
驸 6857
杜 6858
楷 6859
歷 6860
邓 6861
嘭 6862
厚 6863
宽 6864
溶 6865
樛 6866
動 6867
颯 6868
抬 6869
拙 6870
摘 6871
現 6872
麟 6873
蹇 6874
ary 6875
芒 6876
楓 6877
擔 6878
宮 6879
鲮 6880
均 6881
顶 6882
璽 6883
芸 6884
梧 6885
诺 6886
邬 6887
诽 6888
赤 6889
殆 6890
換 6891
刈 6892
犹 6893
追 6894
笺 6895
悭 6896
玲 6897
潇 6898
諱 6899
圪 6900
舱 6901
蒜 6902
琢 6903
酪 6904
寝 6905
kno@@ 6906
濯 6907
鎅 6908
丘 6909
騁 6910
扰 6911
烊 6912
涩 6913
suc@@ 6914
啦 6915
賒 6916
颜 6917
残 6918
纏 6919
w@@ 6920
听 6921
穩 6922
尺 6923
昙 6924
險 6925
kes 6926
暹 6927
帷 6928
卷 6929
屉 6930
核 6931
险 6932
板 6933
牠 6934
贝 6935
sur@@ 6936
嚐 6937
纹 6938
穷 6939
坍 6940
剒 6941
貉 6942
踝 6943
玳 6944
笑 6945
勻 6946
eas@@ 6947
椅 6948
鸥 6949
菜 6950
苯 6951
颧 6952
汝 6953
夹 6954
峒 6955
鸯 6956
each 6957
亟 6958
under 6959
套 6960
琥 6961
暖 6962
詔 6963
be@@ 6964
潼 6965
谂 6966
竭 6967
脐 6968
淌 6969
辋 6970
践 6971
茁 6972
呴 6973
醛 6974
築 6975
欲 6976
柔 6977
洗 6978
窥 6979
用 6980
ye@@ 6981
护 6982
郞 6983
吏 6984
兹 6985
縱 6986
涤 6987
id 6988
截 6989
阪 6990
婊 6991
lar 6992
鹹 6993
女 6994
眉 6995
遭 6996
霫 6997
鑰 6998
诗 6999
刹 7000
雷 7001
鞘 7002
tal@@ 7003
川 7004
li@@ 7005
霰 7006
斩 7007
皚 7008
沥 7009
tic 7010
授 7011
mor@@ 7012
揼 7013
you'@@ 7014
呵 7015
雳 7016
咬 7017
enc@@ 7018
懈 7019
纯 7020
幺 7021
with@@ 7022
岐 7023
本 7024
蔑 7025
恍 7026
忤 7027
sion 7028
涇 7029
嚟 7030
顴 7031
虻 7032
寺 7033
ward 7034
墉 7035
闊 7036
垒 7037
智 7038
坭 7039
虱 7040
蟥 7041
選 7042
ther@@ 7043
孕 7044
坳 7045
悲 7046
涌 7047
雍 7048
娛 7049
烟 7050
骁 7051
浪 7052
幹 7053
缩 7054
妹 7055
慌 7056
跪 7057
溯 7058
珏 7059
販 7060
鹧 7061
乜 7062
樾 7063
澍 7064
枕 7065
翳 7066
璟 7067
长 7068
幄 7069
做 7070
輪 7071
長 7072
秃 7073
业 7074
瞬 7075
l@@ 7076
蓋 7077
story 7078
放 7079
歇 7080
帳 7081
傘 7082
埠 7083
tho@@ 7084
速 7085
孚 7086
劇 7087
迎 7088
改 7089
堀 7090
蟆 7091
斜 7092
mi@@ 7093
ec@@ 7094
慮 7095
纲 7096
髀 7097
竞 7098
配 7099
tt@@ 7100
裂 7101
game 7102
營 7103
檬 7104
聆 7105
my 7106
昵 7107
胜 7108
shi@@ 7109
紊 7110
妵 7111
挲 7112
am 7113
荆 7114
守 7115
访 7116
吮 7117
咙 7118
贾 7119
雲 7120
璋 7121
i'@@ 7122
朱 7123
闌 7124
淅 7125
搧 7126
瀉 7127
寡 7128
涎 7129
劃 7130
纷 7131
does 7132
预 7133
犁 7134
绑 7135
輸 7136
郵 7137
眩 7138
diff@@ 7139
刊 7140
窩 7141
騷 7142
必 7143
鹃 7144
箸 7145
舀 7146
ke 7147
仓 7148
恩 7149
洶 7150
滾 7151
峻 7152
掖 7153
al@@ 7154
咗 7155
旁 7156
甏 7157
譁 7158
钿 7159
啄 7160
盒 7161
comp@@ 7162
纶 7163
榭 7164
诏 7165
媚 7166
嶼 7167
懼 7168
冧 7169
癆 7170
爹 7171
轎 7172
闔 7173
酶 7174
駭 7175
舌 7176
柜 7177
愎 7178
乓 7179
踎 7180
孺 7181
嗓 7182
齉 7183
洞 7184
舞 7185
燦 7186
攘 7187
麻 7188
魷 7189
柱 7190
鉛 7191
谪 7192
best 7193
偽 7194
單 7195
淘 7196
翅 7197
飞 7198
孢 7199
紳 7200
殺 7201
哝 7202
蹈 7203
酰 7204
引 7205
材 7206
dy 7207
ann@@ 7208
坝 7209
級 7210
better 7211
him 7212
舅 7213
酵 7214
注 7215
奘 7216
婉 7217
搽 7218
辟 7219
鳗 7220
唠 7221
妁 7222
fol@@ 7223
工 7224
繁 7225
著 7226
畵 7227
芜 7228
彈 7229
酝 7230
嚎 7231
奏 7232
鏘 7233
蓬 7234
督 7235
貼 7236
颂 7237
極 7238
槊 7239
邃 7240
術 7241
邺 7242
憎 7243
淋 7244
炆 7245
燄 7246
庥 7247
佛 7248
堃 7249
vel 7250
掳 7251
ise 7252
朗 7253
宁 7254
罩 7255
芳 7256
請 7257
撤 7258
陌 7259
麽 7260
挺 7261
you@@ 7262
腺 7263
諳 7264
吸 7265
蟹 7266
逐 7267
澤 7268
茜 7269
喈 7270
洪 7271
逶 7272
戌 7273
鲶 7274
wor@@ 7275
坻 7276
叱 7277
迅 7278
泻 7279
焫 7280
羽 7281
玠 7282
须 7283
ou@@ 7284
雋 7285
隊 7286
祠 7287
嗌 7288
锊 7289
趕 7290
莠 7291
炮 7292
傥 7293
sti@@ 7294
怠 7295
瀨 7296
造 7297
bre@@ 7298
癌 7299
祇 7300
环 7301
褂 7302
藍 7303
雕 7304
敎 7305
及 7306
跛 7307
兰 7308
spe@@ 7309
癖 7310
织 7311
筚 7312
丸 7313
靚 7314
ts 7315
說 7316
bu@@ 7317
罪 7318
咚 7319
惜 7320
路 7321
唱 7322
奖 7323
嚒 7324
骛 7325
羣 7326
补 7327
develop@@ 7328
禦 7329
理 7330
赦 7331
据 7332
can@@ 7333
攪 7334
钮 7335
really 7336
閨 7337
刺 7338
朽 7339
木 7340
硯 7341
搦 7342
cont@@ 7343
鯊 7344
旌 7345
沿 7346
濒 7347
哭 7348
雾 7349
懿 7350
盟 7351
桌 7352
羨 7353
乡 7354
庭 7355
閻 7356
肃 7357
薯 7358
sul@@ 7359
she 7360
邮 7361
甬 7362
bro@@ 7363
留 7364
村 7365
ili@@ 7366
伐 7367
唤 7368
anc@@ 7369
否 7370
轶 7371
皇 7372
是 7373
从 7374
辙 7375
淤 7376
light 7377
添 7378
蹋 7379
镉 7380
范 7381
鮀 7382
楫 7383
资 7384
happ@@ 7385
詭 7386
遥 7387
稼 7388
锐 7389
劍 7390
洮 7391
搀 7392
馋 7393
靠 7394
络 7395
揄 7396
治 7397
镭 7398
茫 7399
屘 7400
勞 7401
訣 7402
渔 7403
鞏 7404
甯 7405
惯 7406
爭 7407
泠 7408
菈 7409
恿 7410
ble 7411
俸 7412
少 7413
毫 7414
嗗 7415
針 7416
花 7417
酥 7418
com 7419
奢 7420
建 7421
之 7422
尸 7423
綁 7424
聂 7425
虹 7426
悶 7427
times 7428
濱 7429
捶 7430
tri@@ 7431
森 7432
剧 7433
蜷 7434
遠 7435
灵 7436
拣 7437
again 7438
绸 7439
满 7440
仗 7441
噹 7442
斬 7443
盐 7444
阁 7445
冊 7446
ink 7447
謎 7448
枸 7449
眙 7450
涧 7451
哐 7452
撮 7453
嘩 7454
崴 7455
润 7456
牦 7457
棺 7458
芹 7459
究 7460
捹 7461
喺 7462
区 7463
寞 7464
茯 7465
憋 7466
萌 7467
矣 7468
庫 7469
克 7470
老 7471
佘 7472
ain 7473
梓 7474
g 7475
罚 7476
邢 7477
轾 7478
卦 7479
将 7480
茨 7481
問 7482
轧 7483
壑 7484
糖 7485
霏 7486
彗 7487
巷 7488
ver@@ 7489
日 7490
嬷 7491
骘 7492
宣 7493
斥 7494
脱 7495
弟 7496
峥 7497
饼 7498
碘 7499
谌 7500
瑟 7501
格 7502
訝 7503
stra@@ 7504
忪 7505
ach@@ 7506
鳍 7507
芝 7508
嘯 7509
contin@@ 7510
so 7511
个 7512
饷 7513
more 7514
挪 7515
靶 7516
愁 7517
像 7518
偃 7519
last 7520
防 7521
濺 7522
嫌 7523
氢 7524
back 7525
cl@@ 7526
嘚 7527
us 7528
and@@ 7529
酐 7530
搣 7531
惊 7532
囍 7533
拘 7534
禪 7535
忑 7536
尔 7537
俺 7538
聾 7539
伫 7540
抹 7541
右 7542
蛋 7543
辰 7544
辽 7545
where 7546
避 7547
棹 7548
let 7549
壩 7550
坨 7551
ell 7552
砥 7553
勢 7554
廷 7555
押 7556
璧 7557
捺 7558
ility 7559
hu@@ 7560
紈 7561
脆 7562
犒 7563
傲 7564
灘 7565
滢 7566
懣 7567
渭 7568
吡 7569
刘 7570
忱 7571
魚 7572
ms 7573
陡 7574
堑 7575
墩 7576
武 7577
藉 7578
幢 7579
弭 7580
窃 7581
棒 7582
至 7583
猜 7584
岷 7585
爽 7586
爪 7587
錐 7588
蜗 7589
述 7590
籠 7591
恪 7592
腥 7593
凹 7594
嚿 7595
晒 7596
through 7597
耖 7598
尷 7599
戙 7600
怯 7601
葡 7602
罟 7603
ond 7604
鎚 7605
寥 7606
闢 7607
耨 7608
tor@@ 7609
曆 7610
膚 7611
夙 7612
处 7613
綸 7614
轴 7615
绕 7616
撼 7617
les 7618
荻 7619
浑 7620
爻 7621
磕 7622
臧 7623
祟 7624
帝 7625
唈 7626
t 7627
蛾 7628
閑 7629
冻 7630
塾 7631
蹲 7632
鷺 7633
服 7634
ty 7635
鳅 7636
ue 7637
赟 7638
鲭 7639
using 7640
摒 7641
撸 7642
got 7643
酚 7644
摵 7645
瞧 7646
曬 7647
褛 7648
啮 7649
loc@@ 7650
莜 7651
训 7652
枇 7653
犷 7654
擂 7655
戮 7656
i'm 7657
湾 7658
旳 7659
灰 7660
犄 7661
岩 7662
樊 7663
ted 7664
悌 7665
尖 7666
沐 7667
錶 7668
淦 7669
瑶 7670
刷 7671
掉 7672
龈 7673
most 7674
哣 7675
航 7676
违 7677
殴 7678
認 7679
杏 7680
獄 7681
n't 7682
咹 7683
完 7684
絲 7685
掂 7686
宙 7687
僧 7688
轲 7689
紜 7690
狷 7691
ason 7692
蟀 7693
蟾 7694
話 7695
御 7696
ance 7697
熏 7698
离 7699
燕 7700
瀏 7701
蠢 7702
閹 7703
刻 7704
bas@@ 7705
救 7706
弦 7707
纨 7708
弹 7709
权 7710
ore 7711
姆 7712
菀 7713
註 7714
近 7715
谦 7716
滇 7717
丽 7718
筹 7719
挤 7720
郡 7721
烫 7722
fe@@ 7723
鲈 7724
址 7725
嫻 7726
婺 7727
包 7728
蒹 7729
奎 7730
斑 7731
陰 7732
定 7733
襦 7734
挽 7735
thing 7736
旨 7737
no@@ 7738
特 7739
肪 7740
顿 7741
牝 7742
很 7743
绫 7744
仞 7745
呢 7746
仡 7747
眸 7748
滗 7749
兼 7750
綉 7751
暮 7752
籲 7753
繩 7754
狲 7755
伽 7756
ely 7757
璈 7758
緘 7759
痒 7760
鑽 7761
顷 7762
秽 7763
詞 7764
靺 7765
噴 7766
唧 7767
ton 7768
疣 7769
馗 7770
猶 7771
悸 7772
唢 7773
絀 7774
铁 7775
鈔 7776
挂 7777
瞻 7778
闺 7779
知 7780
繹 7781
晤 7782
洒 7783
罵 7784
弊 7785
驗 7786
尿 7787
蜜 7788
ree 7789
媾 7790
醬 7791
启 7792
睐 7793
悖 7794
塬 7795
聘 7796
痿 7797
庇 7798
林 7799
促 7800
睽 7801
丝 7802
叽 7803
癥 7804
磉 7805
ds 7806
午 7807
嘲 7808
嬲 7809
彭 7810
睫 7811
簧 7812
龙 7813
from 7814
碌 7815
韁 7816
cor@@ 7817
water 7818
朔 7819
隔 7820
龅 7821
減 7822
砂 7823
min@@ 7824
行 7825
搬 7826
厩 7827
绪 7828
鴿 7829
cu@@ 7830
魂 7831
羚 7832
懵 7833
憐 7834
姝 7835
攞 7836
酒 7837
織 7838
编 7839
忌 7840
溏 7841
筲 7842
抖 7843
硅 7844
place 7845
縈 7846
揞 7847
髁 7848
背 7849
嗲 7850
暸 7851
丶 7852
虧 7853
蹚 7854
皖 7855
禁 7856
荏 7857
侶 7858
em@@ 7859
輔 7860
臾 7861
es@@ 7862
參 7863
op@@ 7864
揗 7865
唿 7866
尘 7867
萧 7868
箔 7869
类 7870
锭 7871
諧 7872
provi@@ 7873
掙 7874
黎 7875
託 7876
蘿 7877
叟 7878
侄 7879
art 7880
sp@@ 7881
根 7882
狙 7883
跤 7884
臟 7885
疇 7886
禹 7887
喔 7888
篼 7889
管 7890
桿 7891
潋 7892
鼻 7893
禿 7894
町 7895
悍 7896
霄 7897
some 7898
铖 7899
蠟 7900
剝 7901
吳 7902
座 7903
碚 7904
拐 7905
隘 7906
科 7907
圭 7908
腻 7909
每 7910
黙 7911
斤 7912
五 7913
极 7914
fir@@ 7915
屡 7916
fi@@ 7917
匕 7918
丏 7919
鈪 7920
誦 7921
猊 7922
十 7923
躇 7924
曾 7925
閩 7926
飄 7927
能 7928
嘶 7929
鹢 7930
唛 7931
瞅 7932
ure 7933
fac@@ 7934
揳 7935
導 7936
監 7937
旷 7938
筷 7939
king 7940
ast 7941
篾 7942
綻 7943
st@@ 7944
職 7945
餌 7946
钉 7947
霉 7948
柬 7949
戀 7950
淹 7951
悚 7952
is@@ 7953
榚 7954
an 7955
登 7956
睁 7957
纠 7958
涯 7959
ass 7960
競 7961
槽 7962
噩 7963
努 7964
搲 7965
趟 7966
啓 7967
蝼 7968
ese 7969
贩 7970
炬 7971
層 7972
褥 7973
埵 7974
th 7975
情 7976
i@@ 7977
庵 7978
缓 7979
膨 7980
证 7981
隗 7982
呶 7983
e@@ 7984
憚 7985
声 7986
漕 7987
庄 7988
等 7989
姚 7990
碉 7991
喟 7992
蓼 7993
紋 7994
凍 7995
廠 7996
搪 7997
驮 7998
er@@ 7999
ating 8000
挝 8001
蜃 8002
one 8003
ket 8004
粑 8005
舫 8006
傀 8007
掸 8008
迟 8009
橇 8010
臭 8011
眇 8012
諫 8013
粉 8014
鐸 8015
腩 8016
銜 8017
許 8018
蛛 8019
枭 8020
蜍 8021
昊 8022
僻 8023
am@@ 8024
盏 8025
噙 8026
梿 8027
賤 8028
娉 8029
鳟 8030
side 8031
淼 8032
笠 8033
垂 8034
溫 8035
娠 8036
聵 8037
绔 8038
执 8039
季 8040
达 8041
ce@@ 8042
舶 8043
炽 8044
貅 8045
冢 8046
塌 8047
吾 8048
幽 8049
啰 8050
閥 8051
c 8052
鸚 8053
纸 8054
沃 8055
隅 8056
阀 8057
酸 8058
徨 8059
誊 8060
洩 8061
耸 8062
矓 8063
ey 8064
鶩 8065
凝 8066
出 8067
帶 8068
讣 8069
糠 8070
汰 8071
devel@@ 8072
壶 8073
阆 8074
貓 8075
議 8076
巉 8077
拳 8078
写 8079
芩 8080
敝 8081
嘞 8082
del@@ 8083
组 8084
摙 8085
ill@@ 8086
势 8087
to@@ 8088
ie@@ 8089
pi@@ 8090
寨 8091
凰 8092
园 8093
s@@ 8094
庸 8095
馴 8096
担 8097
京 8098
瀄 8099
沓 8100
珙 8101
覆 8102
滄 8103
切 8104
sy@@ 8105
樂 8106
闕 8107
矛 8108
嫣 8109
覃 8110
嘈 8111
艙 8112
禺 8113
赚 8114
歆 8115
屜 8116
萎 8117
喃 8118
雖 8119
ak@@ 8120
霖 8121
chil@@ 8122
屄 8123
敦 8124
歪 8125
噗 8126
嗦 8127
俄 8128
耵 8129
绞 8130
龕 8131
奄 8132
漬 8133
塗 8134
鱇 8135
髌 8136
艷 8137
嘢 8138
楹 8139
潍 8140
蛹 8141
駿 8142
侧 8143
湍 8144
怀 8145
戲 8146
橄 8147
氡 8148
漩 8149
缠 8150
怜 8151
tical 8152
累 8153
勝 8154
南 8155
矩 8156
轸 8157
diffe@@ 8158
巒 8159
诋 8160
person@@ 8161
總 8162
券 8163
煞 8164
tur@@ 8165
浩 8166
椎 8167
竖 8168
喱 8169
旺 8170
孥 8171
虬 8172
糜 8173
m 8174
鬧 8175
纣 8176
年 8177
敢 8178
铊 8179
揭 8180
釜 8181
鸶 8182
胪 8183
蛆 8184
己 8185
嵌 8186
鳳 8187
濛 8188
鏟 8189
松 8190
ought 8191
oun@@ 8192
里 8193
冼 8194
賢 8195
溉 8196
吵 8197
蠔 8198
曇 8199
莞 8200
段 8201
潞 8202
镂 8203
ic@@ 8204
鼾 8205
褔 8206
埤 8207
掬 8208
蔬 8209
國 8210
瞞 8211
者 8212
擰 8213
寿 8214
七 8215
inclu@@ 8216
籃 8217
being 8218
缨 8219
連 8220
遴 8221
飕 8222
塱 8223
藁 8224
瞄 8225
福 8226
糊 8227
渠 8228
妙 8229
ser@@ 8230
舍 8231
损 8232
痙 8233
曳 8234
呤 8235
异 8236
瑩 8237
診 8238
矢 8239
rel@@ 8240
玷 8241
嚯 8242
媛 8243
绢 8244
锉 8245
贵 8246
儘 8247
超 8248
蘊 8249
練 8250
钡 8251
峽 8252
北 8253
辣 8254
繑 8255
浒 8256
畫 8257
煲 8258
瑁 8259
袖 8260
态 8261
涪 8262
娈 8263
铰 8264
废 8265
湧 8266
life 8267
另 8268
佻 8269
瞒 8270
驴 8271
传 8272
聋 8273
埇 8274
遣 8275
斂 8276
剃 8277
渎 8278
懂 8279
捨 8280
臘 8281
ir@@ 8282
进 8283
醋 8284
睢 8285
鄺 8286
袅 8287
军 8288
镕 8289
丹 8290
ial 8291
ks 8292
齣 8293
焙 8294
蒂 8295
賽 8296
拇 8297
殊 8298
厘 8299
姥 8300
news 8301
嵘 8302
袒 8303
岱 8304
刪 8305
嵴 8306
镯 8307
un@@ 8308
電 8309
餵 8310
偵 8311
娥 8312
杉 8313
洵 8314
緻 8315
芊 8316
宪 8317
兴 8318
勛 8319
叼 8320
鵎 8321
just 8322
咭 8323
饯 8324
迪 8325
步 8326
捧 8327
蟬 8328
栖 8329
same 8330
you 8331
sen@@ 8332
鹿 8333
我 8334
迾 8335
are@@ 8336
鹊 8337
下 8338
巡 8339
蚌 8340
膝 8341
view 8342
臀 8343
骚 8344
咕 8345
黠 8346
故 8347
砰 8348
欢 8349
飘 8350
巩 8351
緙 8352
昌 8353
膠 8354
磋 8355
des@@ 8356
吃 8357
執 8358
鼠 8359
傢 8360
角 8361
惑 8362
历 8363
咽 8364
ning 8365
覷 8366
軍 8367
支 8368
羞 8369
匾 8370
毅 8371
畜 8372
蔚 8373
茸 8374
nee@@ 8375
腹 8376
餮 8377
手 8378
昱 8379
弱 8380
虑 8381
禀 8382
泮 8383
什 8384
though 8385
規 8386
烁 8387
叻 8388
锴 8389
撷 8390
参 8391
隋 8392
弓 8393
炀 8394
腦 8395
坎 8396
蒽 8397
復 8398
惕 8399
击 8400
cas@@ 8401
疚 8402
嫦 8403
桑 8404
鉾 8405
掅 8406
鲁 8407
翻 8408
额 8409
祎 8410
丢 8411
琦 8412
韓 8413
问 8414
regi@@ 8415
it's 8416
#0 8417
#1 8418
